/**
  ******************************************************************************
  * @file    network_data.c
  * @author  AST Embedded Analytics Research Platform
  * @date    Mon Jul  4 19:07:31 2022
  * @brief   AI Tool Automatic Code Generator for Embedded NN computing
  ******************************************************************************
  * @attention
  *
  * Copyright (c) 2022 STMicroelectronics.
  * All rights reserved.
  *
  * This software component is licensed by ST under Ultimate Liberty license
  * SLA0044, the "License"; You may not use this file except in compliance with
  * the License. You may obtain a copy of the License at:
  *                             www.st.com/SLA0044
  *
  ******************************************************************************
  */
#include "network_data.h"
#include "ai_platform_interface.h"


AI_ALIGNED(32)
const ai_u64 s_network_weights_array_u64[ 18275 ] = {
  0x3a14852739dd5436U, 0xb9cacd0eb9dffb7aU, 0x39a91eaa37b72dfdU, 0x393432adb9c65253U,
  0x394540b13a16d71bU, 0x3a1cae35397cbdd1U, 0xb8e8a334b894300dU, 0x3a07377eb8aea5d0U,
  0x390ab43e3a1f9824U, 0xb9e09508b8fd7d05U, 0xb94c10aa399101ebU, 0xb8d8c200b970d64fU,
  0xb9722ccab9ff5bcdU, 0x396927b5b9da54c2U, 0x38258aa839b0aadaU, 0x39ce17c939cdc0cbU,
  0x39ac0fdab851e46cU, 0xb994ba89399a2437U, 0xb9b1b395b9ecdb48U, 0x39e80c22b9b2e638U,
  0x38ddec2639a7c4fbU, 0xb5543982b9b6c6c1U, 0xb9b60180b95e918bU, 0x39c628d739974e98U,
  0xb9823f3b387ca9d4U, 0x3919c4dcb9bfa72cU, 0xba04f850b92af1c5U, 0x37f1cdd738d19d12U,
  0x398c53f2399a22ecU, 0x380ad0f33a11fad0U, 0x3a05253039e619bcU, 0x39ca8cda39ecb1dbU,
  0xb89b2a54388de84cU, 0x3991006739e9229fU, 0x3a01bddf37aea186U, 0x39bfbf3b38855b10U,
  0xb9b273c5b9658627U, 0xb9d05937399c5932U, 0xb953486ab9f08cd0U, 0x39a9977bb8a46f66U,
  0xb80d795a38f4749dU, 0x39ee93cd37ec76b6U, 0xb9df18ee38f8312aU, 0x38691dbeb9c4557cU,
  0xb981bdb939bebf20U, 0xb8d50f30b9ac6c89U, 0xb9a0ef70b981209cU, 0xb963c1cd39ad5379U,
  0x390f96403a050bb6U, 0x3914b04339c5a9b2U, 0x397e31d5b9dd7848U, 0x39eb04a739835964U,
  0x39a28cb539d70c34U, 0x39f52708398f1bbfU, 0xb9782b63383f8e18U, 0xb9eddf77b9e4f92dU,
  0xb96fa1a6b9b4630dU, 0xb9ef3086391b6660U, 0xba152be139f659acU, 0x3a04312439b52f95U,
  0xb99a7bda398f8480U, 0xb9594be6b984583aU, 0xb9ba934f397ce071U, 0xb7d9f43539841afeU,
  0x39f30f0eb9bdd865U, 0x3932aa4ab89e6a9bU, 0x3a14b2623a01360fU, 0xb9e2613f391a9227U,
  0x39d5f661b9e08aefU, 0x38936e673827e9d7U, 0xb9eb6fffb9e0d00bU, 0xb802988139882880U,
  0xb9a1408239315e12U, 0x39a18f6e38d2d746U, 0x3934f90839e69f79U, 0x391b1d97b9fe4d5bU,
  0xb999718f39d39e9dU, 0xba0ad53b39a989bdU, 0xba083b8eba093da0U, 0xb93f9450b95bb65aU,
  0xb8989b9bba073c8eU, 0x3a18b30b3981cda9U, 0xb6a5607639bd3b02U, 0x39dbee16b8f7e2eaU,
  0xb808798cb9f9fb48U, 0xb7b58a0db999ac63U, 0x39a58755385bff5aU, 0x39de6c9db869cc0dU,
  0x394218c9b9b2d553U, 0xb9f4c9abb9c7fb79U, 0x3a0f8b0439a327f6U, 0x39fbd99ab9dcaea9U,
  0xb79cd3f0b9b5f089U, 0xb9c5e4beb9913a29U, 0xb977ac02b95cabf7U, 0x389781e9b819d4ffU,
  0xb990edab3926d02aU, 0x39626db5ba06a8baU, 0x392d0120b9e2c302U, 0xb6edc7eab8c4cea5U,
  0x395c0e6b39b4b07fU, 0x38c76dcb39189131U, 0x399ac33cba03c261U, 0xb930423537c2686eU,
  0x39378d1739e36153U, 0x39be94feb64df068U, 0xb952382939f88ca2U, 0x39f28b0cb99a3df0U,
  0xba100d22ba05680cU, 0x39c0154cb9a6102aU, 0x39b688df391065b8U, 0x394df2ba3890af06U,
  0xb9ed120d3a0e9e0fU, 0x389c297d39bccc27U, 0x3a02367eb9f5b4abU, 0x397f5992b88da321U,
  0x38c76b00b9302f73U, 0xb988228938c958edU, 0x39c4866ab9fb9238U, 0x39c3bdb93978b018U,
  0xb9019303394879a6U, 0x3985ff4eb954cb43U, 0x397a5571392ff0e3U, 0xb7957c9f39eed409U,
  0x39681cf739f6f184U, 0x38b5903039a6443aU, 0xb90ed476b93a38e3U, 0xb99fb24eb7ebbc65U,
  0x393b7d2bb90c13e0U, 0xb794a97939d9a111U, 0x39d1d95e37b51ac8U, 0xb9f6115339cdee31U,
  0xba1db336ba1b5ac1U, 0x3943132039303a21U, 0xb985037dba11d077U, 0x388ed89039dcf483U,
  0x3a0085e6b97e9a15U, 0x39a10c083a2330caU, 0xb90cbfcd3a147f10U, 0xb86235ff39a7202bU,
  0x39c0d9993a198ba0U, 0xb89aba37b9479a81U, 0x3a1cd65839f74c8dU, 0x39b6d5beb999a3c4U,
  0xb9cfff493a29533fU, 0x3a2766a939e7934eU, 0xb892c99638b74266U, 0x399ae42fb9aa3b89U,
  0x39d7ec5f36523214U, 0xb9ad325db9b60249U, 0x3908668439ddf313U, 0x39d5cd3d38bcc8d1U,
  0x382c0975b9ddf40dU, 0x392dab24398851faU, 0x381bb58e3908fddbU, 0xb9a7f43d39b494fcU,
  0x3a1a98603a011951U, 0xb9943ecdb9b9ac08U, 0x3a0b1aa2b8ddb8d1U, 0x3a05ce4139d7a5dcU,
  0x3938f530b96126fcU, 0x39951beab8ea5a9cU, 0xb8bff344b9afbfe5U, 0xb9e56fb2b98a7f70U,
  0x3a10ace2b932cb46U, 0x3a07ae6cba015206U, 0x3990354eb9931056U, 0x39e9eb28b9cc6a58U,
  0xb900583739f646e8U, 0x3a280591391779feU, 0xb9c378d1b718db18U, 0xb988bd4039f8662dU,
  0xb9492ab4398efb19U, 0xb9d0bcf6b5f6e8e6U, 0x384ce0263a0be459U, 0xba04e7a2b78cfd3eU,
  0x39059971b9a7be8fU, 0x39a5cad5b961f582U, 0xb9d244d3b848fa56U, 0xb8aab178b9843b29U,
  0xba089846ba0076c6U, 0x39de0b2f39ec931cU, 0x3900712939e5328cU, 0x399698ab398cd924U,
  0xb9df7b183a1349c3U, 0xb8b0ac67b9bebf17U, 0xb88e0b50b9c1e5faU, 0x39f9050fb9135dfeU,
  0x3636b0f437924c6eU, 0x38b72a0539a449eaU, 0x383f78ad392e5319U, 0x397e0c5eb9ad16a7U,
  0xb97a1865ba0d029bU, 0xb9c56d68ba025464U, 0xb936cc5c39f1be4dU, 0xb64feedf38c7dd0dU,
  0x39197a3db93e5026U, 0x393cc9f4b996dbf6U, 0x39c7b85f3960acd9U, 0xb8a9ec5db83e8e0cU,
  0x3804ec0d39f7aa9eU, 0xb9cc9e043a0149ddU, 0x392837eb39f9dc01U, 0xb8be8c753a1302d6U,
  0xb90ebc67399592c7U, 0x39dedb97397b4b94U, 0x39aa01bfb80d3e2aU, 0x3807070b39248579U,
  0x39e9ebad39dc0550U, 0x3a25655d393581f7U, 0xb95f5337b934e1b0U, 0x391a663038b619cfU,
  0xb8866a7339f68389U, 0x399c639e39e9c8dcU, 0x3a213d44b961b76aU, 0x399ac44db8d23855U,
  0xb8a16bfe3a01ebfbU, 0xb95ad02b39859892U, 0x39315ffe39b47ec7U, 0x396bddb6392107c3U,
  0x39c2ff2f38f1256eU, 0x39093132b94d0649U, 0x39891710b9c6977bU, 0x39665706399b4897U,
  0x3a19b92f399904a2U, 0xb9c7b52839ee6d8fU, 0x3a099df4b93d4582U, 0xb88b248539bdf538U,
  0x39d739b23a021b0cU, 0x3920769c3a02b0deU, 0x395c0f09380e7491U, 0xb8e7abbdb928624aU,
  0xb98c1ae639aac382U, 0x393f5ffd398c5c29U, 0x388eabef39c6673dU, 0x39b0ee363865792fU,
  0xb9b95935b8fb94aaU, 0x3820a214b9dc9746U, 0x3895723339c20f09U, 0x3a019aaeb9993e47U,
  0xb9bec6e3b99a2381U, 0x38bac702ba0100d4U, 0x39fa16f3b9ba8de8U, 0x3745bafa39b83754U,
  0xb827066db9dfb2f1U, 0xb83ec9d33a19d771U, 0xb99ac6ef39f72fceU, 0xb9a66b0c392bc82cU,
  0xb9c383f7b94af364U, 0x3a22139138fa7fa5U, 0x3a1a4a50b9228726U, 0xb482b9ba39b41069U,
  0xb989b9c13712c30bU, 0xb991d94f39966700U, 0x38d56955b99c7ed4U, 0xb9364fb53a15543eU,
  0xb9271b4f3919b2fdU, 0x3a1bbcacb92b113dU, 0xb9d16fee38ca3917U, 0x392bba6739de7eddU,
  0x3981c6e5399fce40U, 0x3a23573c39bf66d9U, 0xb896fd8939cdb2daU, 0xb99e3dceb98ec62bU,
  0xb8877610b9c0f15cU, 0x39c14ee9ba058dd8U, 0x3907a875b97c6642U, 0x39c3cf22b9fddaf1U,
  0xb98befd93a0a292cU, 0xb9d7a8cf37289a66U, 0x3a2d7f643a2ad378U, 0x39c18d7b38b7c208U,
  0x39f7b900b84f8f5fU, 0x39de234239943d6aU, 0x39164d93b9986099U, 0xb8b8ecc539da7360U,
  0x3a20213b3a31c69aU, 0x3a0a9bda39a43d12U, 0xb9bb2848b9119a80U, 0x39fdac8ab82c1f1cU,
  0x3a2d152db8ae40c6U, 0xb91bb70b39a56eb8U, 0x3988965e3a0f0f4fU, 0x39469a55b9284c05U,
  0xba0138c237e544f9U, 0xb8e8da2b3987cbc3U, 0xb8c0376fb9c3dda8U, 0xb7c1562439f8c021U,
  0x39473c14b8556043U, 0x3985074639ee404cU, 0xb8b29913398421e9U, 0x3a088b8ab9f16f1eU,
  0xb9c4f27239c70818U, 0xb7b38362b9455dcdU, 0xb7477864b9bab05dU, 0x3a021621b9c71e49U,
  0xb86d948838c677e7U, 0x3a1288d13941b5f3U, 0xb7cbd83db8faf37eU, 0x39f1d8aaba0b33c6U,
  0xb91757c3b999c706U, 0x3994d656b9ac3c2aU, 0xb8a9206938319bcbU, 0x3a048ad039620b89U,
  0x39c1ef36b8f4de3eU, 0x3902cf9039b06de0U, 0x398a2f4239a30ca7U, 0x399b01fc39f30d30U,
  0xb9cab607b9d39bdfU, 0xb9a5dff737cc439eU, 0xb9506956b9267603U, 0x3a0566ef395f2f21U,
  0x381ac836390a2fa9U, 0xb9ac0ed138f070a3U, 0x3a1b1249b9b9a222U, 0x39f7bc7c399addaaU,
  0xb7a7ab7bb8d331e4U, 0x3a1deeb5398ae110U, 0x38ed805eb8726b7aU, 0x37112a95b94f40b6U,
  0xb989f472b9844184U, 0xb9e1b4e8b841abddU, 0x39c31dea3873809aU, 0x398447ac38ce0d9dU,
  0x39cf07f139e064e5U, 0x39898dda37ebfffdU, 0x39b131d63a181f3bU, 0x3860177bb9ab39dbU,
  0x3a0ffa23b9227fa1U, 0xb9d5cac8b6cc117eU, 0xb92f8633b908365bU, 0x399239cbb9d543ffU,
  0xb9dd4c3b3982758eU, 0xb9ac99163987079cU, 0x3910a873b9b963acU, 0x39c7dc923a139422U,
  0xba0545f6b8ae8a87U, 0xb9ad3d2b394812c3U, 0xb947ef1eb95f24f4U, 0x3a01060cb9ecf0deU,
  0xb9460eb53987635fU, 0x3a1e7c5db8a25781U, 0xb8d16b303a0f462eU, 0x3952daae373e8b52U,
  0xb821a8e838347e01U, 0xb85a03c639a81c48U, 0x39eaa4d6b9ec6c2dU, 0x39d7f6a2b9561799U,
  0xb92b2514b9876b5dU, 0x39a1d31739e455aeU, 0x3a11a048b9c1e01dU, 0x399b66c338a94cd6U,
  0xb9ecc965388578edU, 0x3951ad5337d2ac4bU, 0xb835523238a52ec3U, 0xba0510d5b8544195U,
  0x39b40e73b98b2f1aU, 0x38fcef76ba0cceefU, 0x39c6464bb90be818U, 0xb9e1975aba105085U,
  0xb9beb73fba05a914U, 0x39e997e3b9da7197U, 0xba12bd1ab7efdf6bU, 0x3802f89938250006U,
  0x38bb958939b64b7aU, 0xb9c30cdd391f5509U, 0x39b4174039e69f6bU, 0xb72d77f1b9f033eaU,
  0x391f4231b9bcfd68U, 0xb9bb9e93395c903fU, 0xb742c69a39b02822U, 0x3a1042c9b9aacf5bU,
  0xb8bdb2a1b9a36dfaU, 0x37fe4f7a39b4e82bU, 0x399e857c3a0c94e4U, 0xb865f84ab99d2802U,
  0xb9b260cdb8bc7ad3U, 0xb8ee24c9b9ec3156U, 0xb94f52af38de2180U, 0x39c901813a107d60U,
  0x3a229411b99beab3U, 0x38064d663a05c327U, 0xb910b205b90dabfbU, 0xb94ed793b9d48d0aU,
  0xb948b7bb396c0bdcU, 0x38cdb01939c7d2a8U, 0x380a5563b992e9daU, 0xb89ac7ea3959f39cU,
  0x39ae4be0396d6636U, 0xb9b0ed6c39d61c07U, 0xb8c02a493a2ca5efU, 0xb98e80c53999a033U,
  0xb9f17f16393d5423U, 0xba089d6739758401U, 0xb9a709a0ba0417ecU, 0xb9e3d2ba39c4f440U,
  0x3a0fe46c39a2c305U, 0xb9a34783b6e6ad22U, 0xb9c52a00b99a198fU, 0xb919a74c377eeabaU,
  0x376b20c439494655U, 0x39e89bdbb98262daU, 0xb973adbfb98d18e2U, 0xb8cae9c23720567dU,
  0x37e80868b9c5cad8U, 0xb9922dbd3a1891a9U, 0x3a0a89ca39bfed44U, 0xb9cb10b8399d1a1bU,
  0x39dfb6b1389ee377U, 0xb9d94e93b76ec94aU, 0x38b248c53a177433U, 0x38ffba093a10e895U,
  0xb9bed66a39a62558U, 0x39f28a3b38a4c940U, 0x38b017d4b9ebe72bU, 0x3919e70439bbe24dU,
  0xb9f5575039dadf23U, 0x3a02236a39a4a77bU, 0x372b31e7b838a4a8U, 0x38028735b9adcb5dU,
  0x394faa1cb7925081U, 0xb8178b11b92b3388U, 0x3a1a29bc399b95a3U, 0x3832184bb88dc238U,
  0x3a2c1be83921f0aaU, 0x39897239398c332cU, 0x39f779313a053209U, 0x39a368203a0d3222U,
  0x3a13bdad39fabb01U, 0x3a245a753a0c8849U, 0xb9b05929b9cf3155U, 0xb9c8034b3a2b25c6U,
  0x3bc32bb53c8ec0e9U, 0xbc13d7bf3bc753ebU, 0xbaa1c1553cc3240eU, 0xbab575a33c92d078U,
  0x3bd34c6b3c11de6bU, 0xbaffce623bf3f9f9U, 0x3d14c9f43c8c4b5fU, 0xbc14ee8e3b80cde1U,
  0x3c0ce4eebbdb8cadU, 0x3c05314c3c834dccU, 0x3c042e503aec0566U, 0xbc4a1a7b3c0a6baaU,
  0x3bc328d43b8d68d4U, 0x3c4976b7bbf4627dU, 0x3b6306e33c990a2fU, 0xbc83350cbb87b01fU,
  0x3d42e25abd8e7901U, 0x3d9e29e03d575471U, 0x3d99f02a3dc283e8U, 0xbd6c61c7bd1bf6e1U,
  0x3c67952a3d764110U, 0xbd18b08c3d36b3d0U, 0x3d7c660cbdc04f3bU, 0x3d8cd0d8bad16384U,
  0xbc48e6afbdc3d311U, 0x3d2c70f93d983062U, 0x3b84abf7bd4b3a7cU, 0xbc12c9cbbd9a59e9U,
  0xbda978ab3d6fe014U, 0xbd8028963a21e67bU, 0x3daff5023d1a378bU, 0x3dba4f0cbdb3fa7eU,
  0xbd801ba0bd8efd3aU, 0xbd13f87a3d7f28c8U, 0xbd866c9a3d9be70bU, 0xbd5a79253d0f1204U,
  0x3d2cfeb7bd95259bU, 0xbd6f505e3d67a7fbU, 0xbdb7e6723dc9aef2U, 0x3d44d539bc1d0937U,
  0xbbb1aea83db7783aU, 0xbd661bd53daaa56cU, 0x3da84e03bd61e625U, 0xbd8742013d692f98U,
  0xbd51f5cfbd3bab11U, 0xbd96c4fabd6809d3U, 0xbd8dbe683d1bcf1dU, 0xbd7f43473c4c1af2U,
  0x3d2f4bc4bd0bba02U, 0x3d1766db3dc4e41fU, 0x3c972a6cbd6133d9U, 0x3d7fefd2bd6029afU,
  0xbd2db2e9bb99f1e4U, 0x3e07054b3d95ff52U, 0x3d1f96b4bd803e85U, 0xbc703675bbd15316U,
  0x3caeb3bc3d3f0900U, 0x3ce903473ac7e466U, 0x3d8d5c503c96c9a3U, 0xbaf71709bd8c900cU,
  0x3d3769873d128ad3U, 0xbdb17ea4bdd5dd69U, 0xbcb3c1e53cadbe60U, 0xbaa678883dae0d01U,
  0xbdb30cfd3d3111caU, 0xbd0519e93ca0ab08U, 0x3b2ed7b5bd2e4846U, 0x3cf2a8bdba6c9318U,
  0xbd912c52bd214527U, 0xbd1a468e3d673efbU, 0xbd479e2e3d8585efU, 0xbd0708b0bdd1f01dU,
  0x3c431b04bd3b7d54U, 0xbdceabcd3da67f06U, 0x3d7dec683cc072bbU, 0xbc1a47b53db0d256U,
  0xbc3658203a452000U, 0xbc54d38d3d53533bU, 0xbd89539dbc03c8dbU, 0x3cf4120dba55c00eU,
  0x3cabecb0bdb61766U, 0x3dd2aa973cd55a99U, 0x3c81339a3d625ab5U, 0xbd400b0dbdebc71fU,
  0x3daa47a23d6fcf6cU, 0xbd96fbc53d95918eU, 0x3a83be883d8d7b50U, 0xbd0c701abdb647cbU,
  0x3c866368bd441d2bU, 0xbd7a0f10bd3a5b17U, 0x3ddccf403db26722U, 0xbdafbf003d418c22U,
  0xbddae7eebc198b96U, 0xbdc350e13d612997U, 0xbc8058833cd5e538U, 0xbc500bd5bd73f2a0U,
  0xbd6afb613d851b4dU, 0xbdb970663d61cb49U, 0xbc7e9316bc040c10U, 0xbdb76e663dbbc9a6U,
  0x3ba8f1f3bb0b81ecU, 0x3dba2bef3c4d08f2U, 0x3ccbc1e03d248aceU, 0xbcc95cebbd88113fU,
  0xbd3a92f73dc61a84U, 0x3d03f20d3d78e382U, 0x3d8dc698bd91b1eeU, 0x3d4e72e7bd83232fU,
  0x3d2de05cbc706ebdU, 0xbd5ea7623d9e73adU, 0x3bb224da3d53b963U, 0x3d143ce23d847ef3U,
  0x3d2175ecbdb9428aU, 0xbd3f35d53b749220U, 0xbd3d20a7bcee2bd4U, 0x3d37f487bdafcb7aU,
  0xbcd13d07bd4fcd62U, 0xbc34ff6fbdc5ef03U, 0x3c2e924cbdf40cdfU, 0x3d1699d93bffd7d2U,
  0x3d676b39bdaf56dcU, 0xbd871c3a3b85c6bdU, 0xbd40653b3d98829eU, 0xbdb761723d18c821U,
  0xbddf746a3d593820U, 0xbdcaf4d2bdb09d8eU, 0xbc1751363db34e2dU, 0x3d2f21b33c753895U,
  0xbd267b66bdca7ecdU, 0xbd43efa93dc47e54U, 0x3cefa5a73dc39c0eU, 0xbdb252803dba5553U,
  0xbdb294d6373b1f54U, 0x3c376ad5bd4852a4U, 0xbd93b1b13d854588U, 0x3d86fa75bcbd5788U,
  0x3b59c87abcbe2c49U, 0xbd8b56ca3c72ee8aU, 0xbd7d1eaa3c0a1f9eU, 0xbce515b3bbbc6480U,
  0xbde8d6323d40739cU, 0x3da4a941bdc1ab84U, 0x3dc86e293dbb1d99U, 0xbda956fe3d548c6aU,
  0x3dd146c23d87b1ecU, 0xbde1bcc93d852768U, 0x3c8f26f8bc941d68U, 0xbde61b9fbd7217d0U,
  0x3d7f365cbd5ab2b9U, 0x3db970fa3cebf20bU, 0xbdafc4c7bdc26216U, 0xbc08f00bbdf17b40U,
  0xbd825f01bda1667aU, 0xbd8b9a833db6d2ceU, 0x3dc5d4953d59b457U, 0xbd7e21c5bc97e0a8U,
  0x3d00916fbd35d292U, 0x3c6d91023d59ec75U, 0x3dcc550dbdb3468cU, 0x3d2b4940bd324362U,
  0xbc6b5bcb3c4ee113U, 0xbd18f213bd9e073aU, 0x3cc6ad84bc6384e8U, 0x3c388e8d3d55676cU,
  0x3dd43f6dbdb1de79U, 0xbd74539bbd6e321cU, 0x3db917553cca7348U, 0xbc8d54003dd9dbc7U,
  0xbca31a853cd3ce6cU, 0x3d2953e33da15cc0U, 0x3d055fe33d54bf74U, 0xbd27ebe03c8a8346U,
  0x3d5b3d2c3cb26aafU, 0xbdb47ff63db36fb9U, 0xbdb4103d3d3f1abeU, 0xbb8006d03cee9edaU,
  0x3a8a38f83dc61bddU, 0xbd837d98bda09e9dU, 0xbc813d4bbdc7e1e3U, 0x3d4b0918bda68600U,
  0xbd58d53dbdcdcb85U, 0x3cdf2a1dbce0e692U, 0x3b2360d83d9ed472U, 0xbda13224bda2ed50U,
  0x3dd08f11bd78c830U, 0x3d92cff33d89fd74U, 0x3cb358d9bc9c0232U, 0xbd7e506f3ddcf588U,
  0xbb2ead123ce26e41U, 0xbc52496bbd549272U, 0xbd1f817cbd007afeU, 0xbda1febabc3809feU,
  0x3c8f679e3de0bc8cU, 0x3d4806b53c7ed426U, 0xbcfdadd83d6ea298U, 0x3c5b3d6b3d8dba19U,
  0xbdb2acf0bc77366dU, 0x3da421df3d73f195U, 0x3db249b3bd504581U, 0xbd20ce5e3d8cdf01U,
  0xbc16bd783d3fbc6bU, 0x3c91d7e93d9ed1c4U, 0xbd01a0063da2300fU, 0xbd33adfc3d863343U,
  0x3dc3fd2b3d966ef5U, 0xbdbb0dd6bcb7585bU, 0x3d548e38bb531e6cU, 0xbcc0f1703b79b73fU,
  0xbcf66cc03def68b4U, 0x3d4c911abb286750U, 0x3d07c32ebdc2f702U, 0xbd8559e23c8671abU,
  0xbd16b862bdb9135eU, 0xbd9c9b30bd80c77fU, 0x3d8d7af43d5cd1a8U, 0xbdb3cf47baf3701bU,
  0xbba591853d917363U, 0x3bb04444bcefa1b1U, 0xbccd9bbd3d715aeeU, 0x3cb0d4bcbb1f80deU,
  0xbcc6368bbc9545abU, 0x3d69beb33dc81fedU, 0xbced3725bcc84bb0U, 0xbd690c04b9fea390U,
  0x3dacab1fbda8056fU, 0xbd814486bc354c45U, 0xbbbc01bcbcd45dfeU, 0x3d41e2c0bbdad974U,
  0xbccf7a463da488efU, 0x3dd99c5e3d81435cU, 0x3d308aec3a99f57cU, 0x3a7358bc3dae408cU,
  0x3dd0667f3dade195U, 0x3c5893323d963489U, 0xbd94f32b3d8ebddfU, 0xbd6ee2853d2b6a5eU,
  0xbd7a7dcb3d4249e2U, 0x3d7cd59abd833c4cU, 0xbd5794a2bd8b4502U, 0xbdc040d53dbc9293U,
  0x3cb75796bafd5863U, 0x3d975e683ccd1759U, 0xbd4203e03ceacad4U, 0xbcbc526b3d46721bU,
  0xbd447ea1bc95996bU, 0x3d06a643bd752d7dU, 0x3bbb2b88bc95c7a3U, 0xbd741f3a3d5d4da9U,
  0x3da8338f3d964cc8U, 0xbcec45f1bbc1f077U, 0x3d806d803cf85b6eU, 0x3ddb67703c601124U,
  0x3ca05e313b42541cU, 0x3da257523d6b128dU, 0xbd86a0183deb802dU, 0xbcec3e723ddd31cdU,
  0xbca74b43bd821900U, 0xbb0137243dc8dff8U, 0xbc201b6e3d9f677fU, 0x3dad62653cfe9804U,
  0xbd3acb4bbd0e7e59U, 0xbdb8aab43d433a40U, 0xbca8e4e43ccc902bU, 0x3c33c275bd994931U,
  0xbdcefab13dbc3ff1U, 0xbd9472b33ca28becU, 0x3b314212bdabc9a6U, 0x3ba7a314bc19e1f2U,
  0x3d8045bb3b7a218fU, 0xbd0b3761bd8bdc06U, 0xbce9ac05bcbf35d9U, 0xbd529e3ebdbfc6a6U,
  0x3d3882093dd0b57aU, 0x3d1f19023ce6c34fU, 0xbdb0c3adbd01f18bU, 0x3d338961bce79851U,
  0x3d6c104fbc5a40c7U, 0x3bc43774bd19ca40U, 0x3d0b73083d70fdf6U, 0xbca058203d803f60U,
  0xbcd74445bd3ae9cfU, 0xbdbdaeaf3c0b9d48U, 0x3d41c799bd12af9dU, 0xbce362c3bd751357U,
  0x3df927c23d839bf0U, 0xbcf8e32d3d0c19e1U, 0xbd6b663bbccb3d49U, 0xbdb4f76cbd17a0eeU,
  0x3cb046503d1774bcU, 0x3d6ac828bd83f953U, 0xbd5f69273d8afa10U, 0x3d7b2887bd879557U,
  0xbd17e6b73d8991acU, 0xbd4301fc3a4b36b8U, 0x3dcb71153d7644ffU, 0xbd01edbcbd23d566U,
  0xbd85bdb03de212b7U, 0x3d881bcdbd2b1892U, 0xbdb282953da42dd8U, 0x3d0a51f83c2fadcdU,
  0xbc5c8fdb3dd40ea2U, 0xbbc19a53bc27cf5cU, 0xbd843fc93d3240b8U, 0x3dd733503da2a9bdU,
  0xbd8879643d4cd996U, 0xbdc78f92bc34e8cbU, 0xbd088b10bdad570aU, 0x3d30ba4abddd02ffU,
  0x3c8d606ebd589907U, 0xbd809b813d00e18dU, 0xbc0e2d413d6d5a8eU, 0x3dcde055be0c109eU,
  0x3d45950dbdb93300U, 0x3d46e79bbb5ade2aU, 0x3dbbfcd6bd243b30U, 0x3d7e5f46bd9b3d74U,
  0xbb5002fc3d14970eU, 0x3cfbaa21bad60582U, 0x3d29da85bd4cb7c2U, 0xbd0e29fa3d34bef7U,
  0x3b8c08a83d487feaU, 0x3b985e9f3ddd535aU, 0x3c137b4cbd84cef0U, 0x3d7a135dbcaad33fU,
  0x3d8984ef3d5487a7U, 0x3dc0c1d33da51faaU, 0x3d5acbf5bdbb46c6U, 0x3d83ca44bd902737U,
  0xbbb34ce83d8f7184U, 0xbc891387bc4e9029U, 0x3ce6eb643da58ea0U, 0xba69417ebc425e04U,
  0xbdeaba81bca22c00U, 0xbd3258ccbbb93df1U, 0x3da288c43de6ebfbU, 0x3c3c98fd3dd5de69U,
  0xbd8baeb9bda19c4fU, 0xbd2a880abd18703eU, 0x3d90362c3cce31d9U, 0x3cdd76b13c3c2278U,
  0x3c8faa75bdd65333U, 0x3db29b6dbb046808U, 0xbdb77958bcc09c21U, 0xbd3a0f9d3d982037U,
  0xbd6e1d723db99e3dU, 0xbdcc8aafbb7ec0c8U, 0x3db68c9e3e01145eU, 0x3d347b29bc687f0dU,
  0x3da6f4ee3e036514U, 0x3c9805c23def923aU, 0xbda08db1bd348868U, 0x3d2a31ddbc1ac15fU,
  0xbd2b20cabd860279U, 0xbcabcc4c3adf05beU, 0x3d3ff1c03c94e319U, 0x3d8a5c01bdd646d7U,
  0xbd44cc66bda5a8e3U, 0x3cf2470a3d5ffcd6U, 0x3d0c4d9c3d96690fU, 0x3c0422be3c98601eU,
  0xbdadfd823d20e5d1U, 0xbd72f765bd195e18U, 0xbd4448c7babc655fU, 0xbdbc8305bc4cabcfU,
  0xbdc4d0b6bd2b9cc0U, 0x3d4fc67cbcc713e4U, 0xbd24a5ea3d91a8dbU, 0xbd0677033cc8903cU,
  0x3cf9026fbdbffceaU, 0x3da058433cdac7f6U, 0xbd15db193da269ffU, 0xbd76d7c2bde4a91fU,
  0x3c94272f3a558f3eU, 0x3d859a5f3db4452cU, 0xbd2968e63d278a7bU, 0xbd6ff3ce3c3f57b3U,
  0x3d1491563d452a46U, 0x3da013a83d9a2332U, 0xbc03934a3d0a4ef8U, 0xbdeae97ebcd2dcfbU,
  0x3d0d26d13ce12104U, 0xbdedc8553d9ae61bU, 0x3d4a5ce5bd9dc89aU, 0xbd11211c3bdc25e3U,
  0x3dc3f43e3dfc1b53U, 0xbd86a3943d493e00U, 0xbc970392bd765b79U, 0xbdc00e253d42bb86U,
  0xbc9c4cce3db84f1eU, 0x3cf7afaf3e030f37U, 0xbda00dfc3d1bdd51U, 0xbd03ff933dc34346U,
  0xbd3863bb3d3433c0U, 0x3cd77dfebb27834aU, 0xbd243bd13dead743U, 0x3cf508d13dc409c6U,
  0xbdb57b78bc3700f6U, 0x3cc7fd8fbd9c14f5U, 0x3bacb1eb3da26dc3U, 0x3c7721ecbbc0368aU,
  0xbd0ca65abd3ac56fU, 0x3d572d09bdc9c816U, 0x3b90ed273dd5c475U, 0xbd16b893bd7b3a4eU,
  0x3b8ae8f73c6bd696U, 0xbce9dd0bbdbfd34fU, 0xbd5d10ac3d89947fU, 0xbd62aa3a3da4f69dU,
  0x3d024cd2bc4a56e1U, 0x3c4e6174bd8ca750U, 0x3cdf0418bd511d40U, 0xbcc2825d3d050004U,
  0x3c2752063d0bf900U, 0x3d33a68ebd7f33d7U, 0xbd4e5a303c6b778eU, 0xbdada19b3d29e57eU,
  0x3dcb1c8f3d88c0f0U, 0x3dbb39c63d2eba6eU, 0xbd9559ae3d368dbdU, 0x3d99e3af3c97357dU,
  0x3c89c3f0bc14feebU, 0xbd16b2ddbc0a62aaU, 0xbd9445783b4c591dU, 0x3c5ab60abcec72a2U,
  0xbc6f3934bcb8efc6U, 0x3d30d9983d946994U, 0x3d1ae075bd7cb235U, 0x3c3aa9fe3d109be9U,
  0xbc16426c3c182308U, 0x3ca869a83d8a86f4U, 0x3da97d42bce94c00U, 0x3dacc9f3bd1b8690U,
  0x3c94facd3da653c1U, 0x3dd1bb033d7ab0dfU, 0x3d8eebe73d1c98a6U, 0x3caf2df33dbf3a02U,
  0x3daeaa173d33c370U, 0x3d9158f93d1af3bbU, 0xbc5db0783c89f494U, 0x3ab4f20e3ccc82c4U,
  0x3d5ccbc53b5d5a07U, 0x3bf67c82bd89ab93U, 0x3e0894bd3d071d8eU, 0xbd9435753c9842fcU,
  0xbc83e1ca3d8a80f5U, 0xbd674a933ceedb69U, 0xbdbdf7183d251b2aU, 0x3d1f3091bc4f8f5cU,
  0xbce776d83dc7db6dU, 0x3d8b3edfbd9a47e0U, 0xbcb70c433d701b2bU, 0x3d1db17a3d3a9f7fU,
  0xbdd9bfa3bda747d9U, 0xbc9a13fc3c883fa7U, 0xbd161ef3bdbdabbaU, 0xbdabb2403d4eea88U,
  0x3b1ca9b13c3a7119U, 0xbdb03800bdbcaa61U, 0x3d70959ebdb727f3U, 0xbccd4b92bd1231f5U,
  0xbd9879773b2f353fU, 0xbd87642fbc14e826U, 0x3dcb6e6c3c52220aU, 0xbdba3bc43cb4cfedU,
  0xbbd01f81bd654e53U, 0xbafa01ad3d0a2d83U, 0xbdad7bfebd5a7ed7U, 0xbc93f3543d4e1af8U,
  0x3d8e140fbbb73142U, 0xbc58981dbd813098U, 0x3db0417e3cb52fa9U, 0x3d1d224cbdcd8be4U,
  0xbd31681cbd59bdacU, 0xbda91565bc801aa2U, 0x3d0e7fc23d82edf8U, 0x3bcf9b973cdb0f42U,
  0x3c90073d3b970070U, 0x3d1d21833d9619c3U, 0x3db37e32bdca99f2U, 0x3ca0b94fbd758c6fU,
  0xbdbf2f4ebdcf42dfU, 0x3da535c3bdb3910bU, 0xbcfa22243d630823U, 0xbd1a32c5bd028f76U,
  0x3c8d49dfbdd77166U, 0x3db60661bd6f6fceU, 0x3c97c2d83d0bf607U, 0x3ce493b2bda43864U,
  0xbc5c6d75bde8a797U, 0x3c2aa5d63dc2bf9fU, 0xbd85e07fbd8eb005U, 0xbd391e83bda48746U,
  0x3c2a11023da27cc6U, 0xbd67d2c3bb3051abU, 0x3bdf07ee3ca8b29aU, 0xbdba3c18bd7a17edU,
  0x3d2a9e51bdc03868U, 0xbda19c59bc981ec5U, 0x3d49da89bd5123b4U, 0x3c4d6c22bce680a0U,
  0xbc23eda73cb7fa54U, 0xbd6b9a1cbdb7b684U, 0x3d97b3d73c9dd3e6U, 0xbbfb36b83d2592a2U,
  0xbd2a02943cf3187eU, 0xbd498d05bd9f8298U, 0x3d848bf23d8ffacaU, 0x3c45056dbdbfb576U,
  0x3be97a5dbd83c8a8U, 0xbd9517a3bd7382cbU, 0x3dbc1f723ce8d013U, 0x3d9dc6da3d254833U,
  0x3bd0a1b1bcecfbccU, 0x3db7fab93d265434U, 0xbdb1d42dbda2467dU, 0xbcc9c8e83d6db590U,
  0xbd1a3768bcf128e3U, 0xbd1a121c3cf9a601U, 0x3dc85fcabd7dbb8dU, 0xbcbfade9bd46e85aU,
  0xbd5d715bbda32a6bU, 0x3b8a1e573c2b2345U, 0xbd818089bdb17fcaU, 0xbd32fa433ca6b442U,
  0xbd5d08e93c2e9c27U, 0xbbbc79023da92136U, 0xbadd5d1dbda3a56cU, 0x3d763a3abcb0a076U,
  0xbd1eada6bde6c5b9U, 0x3c3be532bdcdeee3U, 0xbb8b85dabd76d42dU, 0x3daa3de83d31da83U,
  0x3dc777e63bd7ad55U, 0xbddf54573d5f707cU, 0x3d55b2503d95c1f5U, 0xbbb64a283d76bf54U,
  0x3ca2e66cbda3e6a5U, 0x3daf7eb7bda7c258U, 0xbd850f3f3d4be231U, 0xbceeff103cd83be7U,
  0xbce440ccbd94e3d3U, 0xbdb79e7a3dc75f6eU, 0xbdb00db33cb7f6bdU, 0xbcb9a224bddef693U,
  0x3d7f16263dbf030bU, 0x3d498b0f3dad8e58U, 0x3d622fbfbc9b6826U, 0xbdb9bc5fbacf6980U,
  0x3bcf9bf9bd6523d2U, 0xbac0beae3d59d30fU, 0x3c7f84e8bd837b2bU, 0xbd75f2fbbddb71d7U,
  0xbc95554b3da1b7f5U, 0xbdb748bdbdc81477U, 0xbdde383ebdb97e1cU, 0x3db10998bda4e52fU,
  0x3d3ac1783d87e7d6U, 0x3cbcdbec3c700f27U, 0x3d92f7d63ad3e584U, 0x3da921a0bd69d88bU,
  0x3cc57fca3d9a9f97U, 0x3cac2ef73daec69eU, 0x3d7691f43cb2ee58U, 0xbd60b3f33d7b5667U,
  0x3cd1a8463da5a406U, 0xbd51ceb7bb823bd6U, 0x3dbc516e3d20945dU, 0x3c2c98993cc37bdbU,
  0xbdcd70cabc93e1ccU, 0xbd787eb43d87c764U, 0xbd6b0381bc821e4dU, 0xbcfc63c7bdabe1bdU,
  0x3db530ccbc017105U, 0xbda164dc3dcff546U, 0x3d7ee3c0bdcd53d1U, 0xbcb10798bd29f4b6U,
  0x3d3eebdf3d0fc9ddU, 0xbd43e570bddcf81fU, 0x3ca4dfc1bd0fd1b9U, 0xbc2170783bf0f7fcU,
  0xbb79b32e3daffb78U, 0xbca209aebdd6bbd8U, 0xbd4af9903d1feb9eU, 0x3d8ffb99bd762fffU,
  0x3d6e6e8cbd47e228U, 0xbd0aa8a2bccd2e06U, 0x3d356d17bd8bba16U, 0xbcd5db343daace08U,
  0x3c0aff9f3d05da82U, 0x3daf97be3d1dee1aU, 0x3c039f4cbdda8523U, 0xbd8a42103da69fa1U,
  0xbc5b41433c306077U, 0xbd24d83d3ca93a66U, 0x3d1f3a9dbd5d819bU, 0xbc0322bf3d37bd90U,
  0xbd04ade13d6f0ec2U, 0x3d16d2443abc36f0U, 0x3d6ec56cbd9ed929U, 0xbd4940683a26edd2U,
  0xbdbb66073d8375a2U, 0x3c7ed497bcd28f25U, 0xbd1cdac2bbe748aeU, 0xbddb3abebd102033U,
  0xbc9efe6f3a07a3cbU, 0x3d6ff5e93cd2256fU, 0xbb5650593c2bba01U, 0xbc51ffedbd247366U,
  0xbcbbdac1bd192fceU, 0x3d839feabd295b94U, 0xbd052c46bd6394e8U, 0x3d4784793d91ffa4U,
  0x3d6d9978bd893214U, 0xbd461c463dd5a33bU, 0xbd504d2b3d2eebcbU, 0xbd17afa1bdb23156U,
  0x3cc727abbd18a70fU, 0xbdbb7e4cbd81c663U, 0xbd6b12e03ca67a99U, 0x3dd58fdb3cdbbb2cU,
  0x3dff488b3dc25000U, 0x3d22f5303d2b18bdU, 0xbde1531e3da3dea0U, 0xbd15590ebd4651d2U,
  0x3dbe500fbd5add9eU, 0xbc7b2b1ebcd5f453U, 0x3dc50a98bd199a4aU, 0x3d1f10d1bcaad876U,
  0x3b3c0d4abd63d461U, 0x3dca95283d6a88e9U, 0xbd827cd2bdd4e645U, 0x3d770702bd6b2e24U,
  0xbce71ec2bd801d42U, 0x3dd9667e3dd6a947U, 0x3cd21bbc3b3596b4U, 0x3ddf49b1bdc4b72dU,
  0x3d3a95e8bcb10fb1U, 0x3da87bf83d824c7bU, 0x3d1dfd48bdb862a4U, 0x3be30ced3d801f8eU,
  0xbdbbb1d63c670ee9U, 0x3dc801a93c87d748U, 0xbc1008b93d976c21U, 0x3d21c0b23cb0ba60U,
  0xbd019f45bba4e7c1U, 0x3d8b73eebca5de18U, 0xbbae8b1abdcc8d12U, 0x3cde8493bd91b89eU,
  0xbc51e11f3de14dc5U, 0xbdb431413de5ac4aU, 0x3c7aa73abdc9fb05U, 0x3da3c8e03c3d90deU,
  0xbd32048fbd701ef8U, 0x3d868a8ebc3c189cU, 0x3d5ee6f73cc703c5U, 0xbc48dbc4bbb67403U,
  0xbd9ba5d73d84ea34U, 0x3d30b36fbd52641eU, 0xbd8c2ff63d8f6d90U, 0x3dd9ae883d165c10U,
  0x3d8adf26bd8aaecdU, 0x3b1d0c653da858d0U, 0x3cdc9f17bd489494U, 0xbcf403173bb3e26dU,
  0xbbddc2f0bbb10701U, 0xbc2be407bcde4590U, 0xbd64b977bd3a2d25U, 0x3dd7bbe7bc1017c8U,
  0x3da11d60bd622a38U, 0xbd83817cbd4c2310U, 0x3d92fa52bca89643U, 0xbc89eae63dcb9a0dU,
  0x3df6051b3c832bc4U, 0xbd83ca393db77303U, 0xbcf956c5bd0e3bcfU, 0x3dc8ab4f3cdf1d5dU,
  0xbba386f8bdb5e1feU, 0x3d489cca3de557c1U, 0xbdc3e8ed3db3d5d1U, 0x3da5e9093d0d3b63U,
  0x3cf77fa6bd24b45bU, 0xbd810a533d1d0242U, 0x3b3981ce3d182b8dU, 0x3b07ef773d8cb4acU,
  0x3df160963c878cf5U, 0x3d858268bc92cf6aU, 0x3d342f423d251c11U, 0x3aedcda33ca5343eU,
  0x3d3295d9bd2e3bfbU, 0xbd41e5cd3d2f329bU, 0x3daafa9a3dd3a918U, 0x3d91f5f5bd377a83U,
  0xbd8f92e9bd722801U, 0x3dc5340d3cef1c04U, 0x3dbbf2bc3d5bbd6bU, 0x3d8db74e3d666ad6U,
  0x3d8b75133d87418aU, 0xbc899ac23cdad385U, 0xbbe13ced3dd7243eU, 0x3ce22eaebc8dc270U,
  0xbd85916abdfaf027U, 0x3cb229abbbed6973U, 0x3c0c5d7c3b10d20eU, 0x3ddb8a483c007d1aU,
  0x3c56ae6c3d388efeU, 0x3cbfd08c3da15828U, 0x3d1a8b7dbdb9216dU, 0xbba7cd713cc517ebU,
  0x3d89ee883d1a992eU, 0xbd0d91003d823a9eU, 0xbc1b4d763c55ed23U, 0x3db5cff5bd90abafU,
  0x3daedc043d9e249dU, 0x3cdb510b3d184503U, 0xbd946ca63c9979b3U, 0x3cec92d93d9c78c4U,
  0x3cab3a8e3d74a14aU, 0x3d8194bdbdc29bb5U, 0xbd89d6b3bd5b4764U, 0x3dbdb6903dc970d0U,
  0xbcd4aa3b3dff0967U, 0x3d8280a33db8a9bdU, 0x3c36508abdbccb37U, 0xbd2fa1893db9fb30U,
  0x3d3b3bb6bd9fd9c5U, 0xbc5a5408bd8f846cU, 0xbd3111283d22b2faU, 0xbcc4902ebdade945U,
  0x3dd6ece6bd290d32U, 0x3de453fabdb18f41U, 0x3cffb6ad3db1c225U, 0x3dc9902abc8afe55U,
  0x3c5f2d3cbd3a681aU, 0xbce697223daa1365U, 0xbdc560aa3dc888d3U, 0xbbedc661bd958848U,
  0x3d29b7583d4c6ac3U, 0x3d8b63713db86a08U, 0x3a6925d13db0ebe4U, 0x3d16d04fbc701803U,
  0x3d8b480fbd6e2e71U, 0xbbbec08cbd8ba767U, 0x3b6092c03d46c4efU, 0x3d1fc83f3be301eeU,
  0xbda099f83d6af28eU, 0xbde42105bdbd3e14U, 0xbc79330a3d389121U, 0x3c869b143de07185U,
  0x3c92fbaf3cf9e512U, 0xbd26b95bbd13ce10U, 0x3cb595643ddf3a68U, 0x3d1fb2483cb18d47U,
  0x3d3163ffbd054c2aU, 0x3dccc63fbd2db239U, 0x3d1e0c15bcb08fa0U, 0xbda452713da52170U,
  0x3db519e6bdb61869U, 0xbd43e5ed3dc25538U, 0x3dbd72c23dc9fb17U, 0x3d4462f4bd69bc5aU,
  0xbd8a53db3d863b31U, 0x3cf458523ce1c5d5U, 0x3c6b527a3dfe2045U, 0xbcce09853ccf0016U,
  0x3c9d7de4ba3f6a40U, 0x3cf57aeabd8f532aU, 0xbdaed5383cdb7e79U, 0xbd0482a1bb2a12caU,
  0x3c2dd2c8bd9c6075U, 0x3aa4c7d2bd1d4838U, 0xbc0baf83bbddb9dcU, 0xbdafa6d6bd9bcc68U,
  0x3aaf84f3bd5110acU, 0xbd77e9053d201575U, 0x3c95e594bcbf423cU, 0x3da6bb1dbd3425faU,
  0x3db5359fbd9e977eU, 0x3da49b9b3c41b80bU, 0xbcb3fcbe3c3596bbU, 0x3d4a19a33ddeeddbU,
  0xbd6c29ebbd0fc493U, 0xbcb33f4d3cfb8c07U, 0x3cd7be5b3d161953U, 0xba9df0fabd9134c4U,
  0x3d933483bd9682b4U, 0xbd9b2133bbf2d685U, 0x3da4df623cd1e6ecU, 0xbd50a620bd8e5723U,
  0x3d9c67f13d9b0eddU, 0xbc921355bc935b66U, 0xbd9686dc3d87a17aU, 0xbd70977c3d6ed1efU,
  0xbd9286223d1cbd0fU, 0xbdb6afa6bd7912c6U, 0x3cba38883d004ac3U, 0xbdd33d8f3d6b4577U,
  0xbd09be453d9d9f91U, 0xbd98217abc393604U, 0xbc6c12c13d9d8361U, 0xbd7a592a3dbb5dcfU,
  0xbda313e4bc52aec7U, 0x3c6e9687bc702620U, 0xbd5dca69bdc76ac4U, 0x3db2a3133c852984U,
  0xbd5e0fb03da812a6U, 0x3d8def1c3da1a969U, 0x3d439e773da54125U, 0x3db7cf613df7e000U,
  0x3d9e71e33c9fe574U, 0xbce90f3fbd859ed2U, 0xbda1dbab3e03b587U, 0x3d8a639ebc46e2dcU,
  0xbdade1fe3da260faU, 0x3dd851913dbc7236U, 0x3d36a6fb3b5fe45cU, 0xbd300a683dbdbaa4U,
  0x3e073fa73d9de625U, 0xbafe2dfabce0963fU, 0xbdb99ebfbc8fccc8U, 0x3dd25efc3dad4697U,
  0xbd6f5efc3d9c33a6U, 0xbcd8abb5bce3e4fdU, 0xbdc46387bd857ae2U, 0xbda607e9bca1b0bcU,
  0xbd753063bd9b2b72U, 0x3cf181dcbd779d6dU, 0x3c3ee8653d5cdacdU, 0xbcf60cf53ddc3088U,
  0xbc1a1541bcee622fU, 0xbbbaebebbd8da05bU, 0x3d2b03a33de5ac68U, 0x3dbb85303db41380U,
  0x3d8a71dfbbd129a6U, 0x3dfc7ed7bbd62c1bU, 0x3d75a8a63cb62626U, 0xbd81bcc1bd82ff7aU,
  0x3caebe883d0f8965U, 0x3e0af7813de81856U, 0x3d56c9583d453faeU, 0xbce81e02bd405a77U,
  0x3bcec78b3d9000baU, 0x3cb677023dfbef13U, 0xbd6b6a003d73ba37U, 0x3d6d20ed3afffe17U,
  0xbc80b282bd35cb90U, 0xbdf2289ebd68302fU, 0x3c0e83473d94c7d7U, 0x3d9157d63d892736U,
  0x3d85a4cbbce03d8bU, 0x3cedb56cbd5cc385U, 0x3d8fd3bcbd94d455U, 0x3d9287973dbffa33U,
  0x3da459de3b236c8aU, 0xbd0c7a3bbc07e169U, 0xbd6bd5f2bd922a0aU, 0x3e03087a3d081b78U,
  0xbd8648b83d74a235U, 0xbd1a79b3bda0582aU, 0x3d26df753df787d8U, 0x3ce10c9d3c3b5748U,
  0x3c364e47bd74847eU, 0x3df9649abd8825ffU, 0x3d80e4983d895131U, 0x3e01207c3cc17212U,
  0xbd82a07a3db84aa0U, 0xbda8db1f3c897987U, 0xbcd8f7f23d0a6868U, 0xbdbf9ae2bcc03b1bU,
  0xbd35b1513dac73a6U, 0x3d308c9ebda11039U, 0x3de87b4ebaeebf86U, 0xbc06c8fa3da04d4dU,
  0xbb5fb145bd817a67U, 0x3e0405fcbd42f4b5U, 0x3dd90614bd7c5a8fU, 0x3cd774013d5caa3eU,
  0xbb56d0e6bc9a5d0dU, 0x3d9cde4bbbc9983cU, 0xbba9e1643dcacc14U, 0xbd9f0e7a3d533bf7U,
  0xbc38a618bc66997eU, 0x3d5c22183d93c33cU, 0x3d722898bbf24c28U, 0xbcce72693cfbc9c5U,
  0xbd3ebfdb3c95b88aU, 0x3c322884bd983b18U, 0xbd33abbebdd86cacU, 0xbc11dd713c7c9c39U,
  0xbdcfd2a1bb9b3487U, 0xbc9b1a3abd97593dU, 0x3d40b9dcbd4b6ce3U, 0xbd6889ff3cb5682aU,
  0x3b13ae3cbd46f9fdU, 0xbd75a2de3d1f27ccU, 0xbd9e2ca73d898b87U, 0xbd7f9e7f3d8dac21U,
  0xbd302bd33cb0734fU, 0xbd1417ca3db77c20U, 0xbdaf5c603d3b9fe5U, 0xbde21dfabc445059U,
  0x3c8a62f73dac45a2U, 0xbdc7bda0bda8b3f8U, 0xbd761b623d9dcd7eU, 0x3daac9513d9bb841U,
  0x3da56227bd643c02U, 0xbd04fe6a3d8c46e7U, 0x3d92b2fbbda410e4U, 0xbdb58b26bc98495dU,
  0x3d8759b7bd49cda4U, 0x3dc2c80f3ad62966U, 0xbdafb1e0bd8237acU, 0xbd33513e3da9e776U,
  0xbc5ffd7e3da65ac9U, 0x3c1fac293b500508U, 0x3d1a18febc026814U, 0x3d4f1cfdbcbeede0U,
  0xbdddec9fbd9c88fbU, 0xbddb85fd3c8017e6U, 0x3c65ca23bd6b07b6U, 0x3cc63c40bd846cb7U,
  0xbd28a4d5bde0956eU, 0x3c6a75acbb8d72c7U, 0xbc4a0d6bbccc638aU, 0x3cb2d6d1bd8e3595U,
  0x3c8a5e7fbd97878aU, 0x3c39f0113d6a24a1U, 0xbc9bf60ebdb1aeddU, 0xbd2aa21bbc12e341U,
  0x3c7f4386bcb94c1bU, 0x3c943d7a3d3bd617U, 0xbdd687c4bb3ca3aaU, 0xbc4566543d444dc8U,
  0xbdb44ca23d3de1fcU, 0x3d29b2073d93ce45U, 0xbc269628bd9e33f2U, 0x3da5900ebd1de34bU,
  0x3d5b5748bc22a05dU, 0x3a4328143d69cc60U, 0xbcee003b3d7bc0baU, 0x3ccb53ce3d8f9241U,
  0xbd629250bd93ede1U, 0xbdacfd78bd03f0e8U, 0x3cd31ef5bc854552U, 0xbd75bd663d96baf7U,
  0x3ddd146c3d8ed9c3U, 0x3c99e9a0bd99ba9cU, 0xbcea14443d099f9eU, 0xbcbdfcd93d933f1cU,
  0xbc37cfcc3cd22812U, 0x3c3fcc333d888d29U, 0x3db9efc03cc853b0U, 0xbd6047453d5d3755U,
  0xbc1799883a9a2c1cU, 0xbd6a7f123daf9cdbU, 0x3c8025f03d08b637U, 0x3bba7ba53d66be59U,
  0x3d3730e33d872c1bU, 0x3dcab4f33d8f8b3fU, 0x3d8cc205bd076747U, 0xbc7b5c323bd4b05dU,
  0x3dbb3441bcb163b7U, 0x3d54af6e3d81ba8eU, 0xbda281803d52f23fU, 0xbc3ca06d3cb9ded2U,
  0x3d82ba93bda8fd02U, 0xbd8eb5c23d05f465U, 0xbd86ce12bd0c0fdaU, 0xbd89cb22bd9b5e04U,
  0x3d19f3f9bdd6d592U, 0x3b12976bbd866386U, 0xbdbae946bda2a166U, 0x3d4e7a483d3e7d2dU,
  0x3d1acf06bd616092U, 0x3d08054e3dbaed4eU, 0xbd07996c3d9f02b9U, 0x3cd53c513d30a488U,
  0xbdb49ec13d48ecfbU, 0x3aa6e77abdc2632dU, 0x3b9ececbbd98dc87U, 0xbd8f9a0b3cc9932bU,
  0xbb900eb4bd045814U, 0x3c368b9abd9a789aU, 0x3d707e093d59e075U, 0xbdcc78a03d8fdd90U,
  0xbcb653edbccee3e6U, 0x3cec56e7bcf9d328U, 0x3cc21cd8bd733de1U, 0x3ccca55dbc3aab68U,
  0x3da95ea03d9b62ccU, 0xbcaa99d83cce8c9dU, 0xbdb559683c27767aU, 0x3d73fe3abd293794U,
  0xbd7d035fbcdc5aa3U, 0xbd5795da3d91f766U, 0x3db26f8b3d54dbfaU, 0xbd9e89eb3d104c25U,
  0xbaeb93c53d963780U, 0x3d3c7c11bc025f5fU, 0x3da8318b3dabeafbU, 0x3d35272c3d42be50U,
  0xbdc1898bbda67c02U, 0x3dd0dda53d7530ecU, 0xbb964affbd9889f7U, 0x3d8acb94bbc91891U,
  0x3d6808cc3d471614U, 0x3cdaae64396804e2U, 0xbcc4c7b03da688b8U, 0xbb80c8863af3404cU,
  0x3d1632543cae3ed0U, 0xbdadafc53d253fdaU, 0xbdbfe06c3d9ee445U, 0x3dae6e093d9d49d8U,
  0x3cf575723d96f334U, 0xbdba81e3bd30f4c3U, 0xbcd7c9423d285c34U, 0xbdb3c9233c3bc2c1U,
  0x3b4c4a72bcc20e3fU, 0x3d4fd6ac3cb321caU, 0xbdbe8a02bd680748U, 0xbdd6f37fbd524722U,
  0xbdb0866abdca1300U, 0xbdd900263c51d85bU, 0xbd6970d3bdcb602eU, 0x3c882bbbbcfd5317U,
  0x3cf75f21bd25e548U, 0x3d3e5f8f3db58557U, 0x3cc4a5683cc17ea1U, 0x3d54e4f13d2a1f06U,
  0x3db7b0d1bd7e3b2aU, 0x3b7a708abdab7a66U, 0x3ddc46d3bba91edaU, 0xbd888e203dba137fU,
  0xbd3d09873cbd7554U, 0xbd97c5ddbd4e7ecfU, 0xbd07961abd983844U, 0xbd8df7423daa3fe2U,
  0x3dbca511bd4bab21U, 0x3c41d9fdbd41d12fU, 0xbca07080bc070522U, 0xbaef8158bd87e214U,
  0xbd3194f33d944c17U, 0x3df99a333d7ab558U, 0xbca582113dd11547U, 0x3d837b473cfd8e0cU,
  0xbbe610123dc3bf6bU, 0xbc8bf5003d08bd7aU, 0xbddc9dce3db94632U, 0xbc917f9e3d667c98U,
  0xbd3b9faa3db50a93U, 0x3cc8568d3d94c6a3U, 0xbbddf60d3da66a31U, 0x3d24d2573ddcfadcU,
  0x3d5aeaaabb579032U, 0xbddfbec43c9a7a67U, 0x3bff67da3d83bfefU, 0x3d9a57193d89f11aU,
  0xbd201f06bdd86661U, 0x3dd07f3cbdb1ac24U, 0xbd3442113ba54430U, 0xbd1a7a8abd27a065U,
  0xbcf34b98bdac1159U, 0x3db131553da0b42fU, 0x3c8e14c63d9c4630U, 0x3dc279f73d9af3ceU,
  0x3d0a7c503c5b41c2U, 0x3d74d187bdd146a6U, 0xbc84ad593df195c9U, 0xbd9bf273bb1c92d8U,
  0xbcca5e4abd9eca59U, 0x3da8223a3d641ec0U, 0x3d30a2783dd45cfaU, 0xbd13790f3db8afc9U,
  0x3de6c5213d800311U, 0x3dd3f88cbd22a670U, 0xbd0a20973de4b619U, 0x3c54f42f3ce52c27U,
  0xbdb227aa3ddc40fcU, 0xbcd0cc913d9330eeU, 0x3e02569f3dc890c7U, 0x3d8f2e103db335c2U,
  0xbdd1473cbd13edc0U, 0x3bcc35253c9bfc3cU, 0x3dc9186fbc24e1ffU, 0x3c75e4533d506234U,
  0xbceacf293c8da21cU, 0x3d5f56b7bc9da650U, 0xbbab280ebd2e1408U, 0x3d554632bd2f7ae6U,
  0xbdb296a2bcd0a974U, 0x3decf394bcd58c03U, 0xbd99a5b13dd5f799U, 0x3daa563bbd1dae8eU,
  0x3bb21047bd4693a8U, 0x3dbba55bbcaf27bcU, 0x3c2ed99cbdbefeedU, 0xbd1717bebd87837aU,
  0x3cc20e74bbab0401U, 0xbcad8b1e3dc247b6U, 0xbcc051d7bd6b086fU, 0x3c6202293ab64c6eU,
  0x3ded0f433dd85bb9U, 0x3d4c7f0fbda1e349U, 0xbddea4c4bd800ba5U, 0x3dcdb295bce1a9b0U,
  0x3c67b665bd16f44cU, 0x3d4da8833d78461eU, 0xbd5329bf3d57bef1U, 0xbd6887f73d7a4aefU,
  0xbdbc3d74bd388958U, 0x3db853863de5ee05U, 0x3d4b5dda3cd4cf7eU, 0x3dd2742c3d7f3defU,
  0x3c99dc983d39b37aU, 0x3cff7ce23d5c1d4dU, 0xbda4c0453df5b2c0U, 0x3dd8ba7d3dc8d289U,
  0xbc80ba7f3c962578U, 0xbcc0a2babcc88b66U, 0x3cd778e4bd3ffda7U, 0x3d77e9dbbb3f9eb5U,
  0x3db325fe3dee6f06U, 0xbccea1c83cf6e7e9U, 0xbbf3d78abcb1fcc0U, 0x3df3459dbc5df28cU,
  0x3d08d326bc4a5718U, 0x3dbebd7e3de8595dU, 0x3cc5ae5c3e01bb5aU, 0x3b488b12bd59c374U,
  0x3dd14ce13d758bcbU, 0x3cfe1a993d1ef169U, 0x3dd31f2ebc9c72ceU, 0x3d8e57603c330a79U,
  0x3de734c03d3e870dU, 0xbdbcd876bda78d52U, 0x3daff8753d8c709fU, 0x3c1340093d81e1efU,
  0x3d0437273e06b9ffU, 0xbba60ef23aa1ecacU, 0x3cb4d11abd831beaU, 0x3bb3cbc33d2f2285U,
  0x3da181803da8eaabU, 0x3dfef8df3d919540U, 0xbd3995063c257143U, 0xbd41493cbd962108U,
  0x3e05bf4b3b7c9f71U, 0x3cd183e63ddd6ed8U, 0xbcd906ccbd9710f0U, 0x3deda189bd15b1c3U,
  0x3cc74f60bb353a4aU, 0xbb2ff721bd81865bU, 0xbdb613333dcff454U, 0xbcbf6374bd863620U,
  0x3d4689acbbe09661U, 0x3cbd46b23d83eedbU, 0xbd82e305bd40696eU, 0x3b46a98a3def24c0U,
  0xbd39b325bd412c6aU, 0xbd9ed21bbd8382a3U, 0xbc4712ddbce8a6bcU, 0x3da2e5fbbd6ca675U,
  0xbd055d0e3d891dbbU, 0x3da92b15bcd84d4fU, 0x3d81b87e3dfefbb5U, 0x3db447b83df1fb78U,
  0x3df9c9db3da99eacU, 0xbd84ac9ebb6e6ef0U, 0x3c81aa6e3da3c456U, 0x3e02ffb33dfc1471U,
  0x3dc4cf3abdfa02caU, 0x3d42c7233d9f71bcU, 0xbd81f3ef3c8b70a6U, 0x3db19214bc0daf26U,
  0xbde47d95bbbefb37U, 0xbdd2556ebd907859U, 0xbc692572bde6450aU, 0xbd4c54d1bd0fddebU,
  0x3cef977ebc9d1a14U, 0x3c8bed32bd146be7U, 0x3cad9274bdaf45f6U, 0x393336bc3d571f26U,
  0xbdfb3a48bde5780eU, 0xbd0e8963bd0af417U, 0xbd5ab49e3d68a1a3U, 0xbd9084c73ca24fa5U,
  0x3d8dc91fbc3f367bU, 0xbc938afa3d2740b1U, 0xbda5bae7bd659062U, 0x3c4a9fecbd50761cU,
  0x3da363b0bc7b2b87U, 0xbdae815cbc82640eU, 0x3dd0128bbd179b56U, 0x3d9caa38bd4f4ba6U,
  0xbdd6deabbce194fcU, 0xbdd848dbbda83762U, 0x3dc69d58bd639a49U, 0xbba1ea3dbdeb505eU,
  0xbdc5fcdc3c6a8e6fU, 0x3d837630bd06f767U, 0x3d76c4fa3c72394fU, 0xbd79e35e3c9d3d61U,
  0xbd8efa21bb69c95eU, 0x3d0371b6bc1c797cU, 0xbdb3625fbb9882f5U, 0xbcc5f71abdc8f0d7U,
  0x3d950f7ebda21d8dU, 0xbdadfc79bdcfd894U, 0x3dc360fdbc502e03U, 0xbaa2bfbabd30f0beU,
  0xbcca7fdb3cc062fdU, 0xbdd10f803da5bb43U, 0xbd83ef743d014768U, 0x3cf0f47cbd4ca858U,
  0xbde13fac3cd9581aU, 0xbce9722cbda3435cU, 0xbcc5435e3ca0d7faU, 0xbc13b2913d6e9779U,
  0xbdb78e403cf66055U, 0x3dd440b13ccac171U, 0xbce087443c9d8becU, 0x3d0716463d4cbcf4U,
  0xbdc5fef0bce7516fU, 0x3d381a4b3d88ec2bU, 0x3c8472d43cd40dfaU, 0x3dbf79413d75d913U,
  0x3d106626bd914fa2U, 0xbd7af1e23c1a9981U, 0xbdc3f7733c2ad048U, 0xbc0619b43d07a52cU,
  0x3dbd6c47bd8943d0U, 0xbd97faa53d85cec3U, 0x3d80dc0abd9a2ba3U, 0xbcababeb3c78fe7cU,
  0xbd99ae91bd919819U, 0x3dc6536fbd0d2c3dU, 0x3d85c2543d793380U, 0x3d6e2e033d5f06d1U,
  0xbd9ed8723d04a3eaU, 0x3d0d0c5fbdcb1989U, 0x3cecffd93d649a43U, 0xbd102654bd0065c5U,
  0xbdda8253bda86d97U, 0xbc91cb9a3c94f3b7U, 0x3c9b94b9bd88a8aeU, 0x3c847adf3ccdec58U,
  0xbdb6a3d0bd005273U, 0x3cc7b405bd36a9fcU, 0xbd633ec3bd7f9b47U, 0x3d7316d7bcfb8eafU,
  0x3ccb77ac3d8070f2U, 0x3cd48b973d6e099eU, 0xbdb2735f3d6a692eU, 0xbd0516063dd9cb2fU,
  0xbdbb69d23aa9058aU, 0x3dbc1e213dc0131cU, 0x3dbd90143d983f62U, 0x3d525d7d3c50c461U,
  0x3d31f9bd3dd7864fU, 0x3d90520c3de57fa7U, 0x3c7ec1c13c568a87U, 0x3bca16173c569dabU,
  0x3df0538dbc1b743fU, 0xbd919c47bd6a2cc1U, 0x3d8117ccbd816fe8U, 0x3da573b73db7a4daU,
  0x3cde4bebbd2c2ad7U, 0x3d2fd9603a866d88U, 0xbdcdbf99bd1331e5U, 0x3dbd322fbc9e1b8aU,
  0xbda988e33d59bf19U, 0xbd076c59bc1263d7U, 0xbce1708d3d03cd4aU, 0xbd72c0b9bd0fccd2U,
  0xbd9290fa3d2ed4e1U, 0x3c410742bd8add37U, 0xbd7aa39f3d3cc9ffU, 0xbc81bbb03d6edab7U,
  0x3ce2f3133d36f934U, 0x3c9be162bd3dd51bU, 0x3db13bc7bd9aecaeU, 0x3d436ab83d00245aU,
  0x3d9461e03d08b6d1U, 0x3db872243dad08edU, 0xbd593203bce23ea6U, 0xbda4549f3c30989fU,
  0xbca69e5a3d8d163eU, 0xbd9e2d1f3ddd3043U, 0xbd7d3a893d5e09cdU, 0x3d1dc6ffbdded811U,
  0xbdd8e3b33d343567U, 0x3c96e78b3dec0e8fU, 0xbceff63d3da20609U, 0xbd65243dbcfdd3eaU,
  0x3d1401853bafcb95U, 0x3d367357bd924a41U, 0xbd9195663c4c6b41U, 0xbd8840fd3d823bcfU,
  0xbd6fff943cb126ddU, 0x3d71c17d3da49e94U, 0xbdcdb978bd87a259U, 0xbd3756983dc4c653U,
  0x394f59c63d7f49b0U, 0xbd33fd5e3da4ce5cU, 0x3da52b463dbc8e00U, 0xbd8005b73d5495f1U,
  0xbddc12bf3cd81bb6U, 0xbd31ae213ddd30e3U, 0x3db4a86b3ca4e3b5U, 0xbcd34953bd511fbeU,
  0x3dbcb4633daad0e7U, 0xbde18b863db39bd5U, 0xbcaa7b6c3d506fb7U, 0x3c6c46443d2eba17U,
  0x3d954f553dbc2928U, 0x3d9d51473ca4954bU, 0xbcd98decbcb0520fU, 0x3b60f407bd04e1efU,
  0xbcf53eea3c3ffb39U, 0x3ce21c483c2a2f01U, 0xbda2273cbd8f1920U, 0xbda684f8bdaee40fU,
  0xbc921d9c3dd5c5f2U, 0x3d4abf91bdcb3650U, 0xbcf947f1bd5c5643U, 0x3a9654f6bd5d9fe2U,
  0xbc4cf639bc85ebddU, 0x3d5519ea3d56d0cbU, 0xbdc6cc863b9a52a5U, 0x3cc0c7343dc6d0ffU,
  0xbc959246bd7f7a7aU, 0x3d6484d6bd903d06U, 0xbd1e7eb83c788908U, 0x3dc3c8a73dfb8a2cU,
  0xbcca7a04bc52d211U, 0x3d97c696bd93a4f9U, 0xbd267870bd0e2965U, 0x3a7df729bc218c93U,
  0xbd9691d73d3d1d1bU, 0xbcec4ba83d38a502U, 0xbc8b524b3c4c08ddU, 0x3c6fb2f03cb60b6eU,
  0x3d9cfdf1bd3f28b6U, 0x3d0d99383d9a158bU, 0x3da7257cbdedd68bU, 0x3c5da801bd1484baU,
  0x3d840e35bc1f89b8U, 0xbdce6b383c8b989dU, 0xbc43b083bcf1b5f3U, 0x3dae92b8bd99c71eU,
  0xbd8dd5b53d46e25cU, 0x3c9bbc03bded24f8U, 0x3dd66bc6bd215692U, 0xbda05c733c56bc4dU,
  0xbb326324bdd9690eU, 0xbdde4876bd8e9b97U, 0xbd3f49583d1c9555U, 0xbce55551bda71d02U,
  0xbc83717e3d2558d7U, 0x3d85e04c3d1a7da0U, 0x3c6c6f55bddaa9b8U, 0x3da093e23da3b8bdU,
  0x3cabfa263ca18108U, 0x3d4cde91bd14bd8eU, 0xbd09e263bd87271cU, 0x3de3cfc7bcafb94aU,
  0x3d4c3dc73c13231aU, 0x3d90617dbd92256eU, 0x3e03266c3c11315aU, 0xbd9989813d8bb20dU,
  0xbd1ca35f3d182b9dU, 0xbd9f22a23d822d96U, 0x3d10e9443dbfb41aU, 0xbd381cd53d7451d1U,
  0xbde1aea63d52fb3aU, 0x3c8edf733c427f45U, 0xbd52cc483d2e0c59U, 0x3cb8acf2bd6fb7a5U,
  0x3d926c683d9aa475U, 0xbd49c58fbdd57ac7U, 0xbc7d71f63dea19bbU, 0x3c20e941bc1d6850U,
  0x3d0d5075bda35ff5U, 0xbd11ab4bbdbda242U, 0xbd29428dbd9de00dU, 0x3dc9808a3cc826f0U,
  0x3d71029ebd23557bU, 0x3ddc7b6abdd9930dU, 0xbc740d59bc4e4173U, 0x3d9a70353db36047U,
  0x3d79a68abd0d26f1U, 0x3dbfd0f33d0a5bc1U, 0x3db8aacc3d813f2fU, 0xbda01c863dae2e55U,
  0xbdd9c3643c1e4c1cU, 0xbd80cc06bc11495fU, 0xbd30e2a93db22cb2U, 0xbdab9857bb434c5aU,
  0x3d93d179bcdd6aa4U, 0x3d8b91623d377459U, 0x3ded950d3d7112a2U, 0xbda8104f3cfb7b5dU,
  0x3d631f9fbd0f0249U, 0x3daeade23d632f57U, 0x3cbcbc53bdd5bbc2U, 0xbcc775b5bd345f85U,
  0xbd0743203d2e996eU, 0xbce9e3d7bca9663fU, 0x3d1275983d9ce2cbU, 0x39dab222bdcf1ebeU,
  0xbdad2d19bb7edddcU, 0x3cec3e7c3ce7720aU, 0xbce2845c3dc116ceU, 0x3cf659183d558ccaU,
  0xbc2ee2003bfb03d4U, 0x3c5d66a8bd57a258U, 0x3db27a433d8eac0fU, 0xbade9ba6bcdd8affU,
  0xbc95a5aabca75b2aU, 0xbd948a333df38cd0U, 0x3d944d543d975b45U, 0xbd0a3c96bc49e961U,
  0x3dfe4cddbd63a8a1U, 0x3d1f178a3d47efb9U, 0x3da2cd1b3ddc3726U, 0x3dfe9103bd92caa6U,
  0x3d84f290bd44d2e7U, 0x3d5c57ec3d029a51U, 0xbdbaa02cbc0d3625U, 0x3d8ef1d53de7de4bU,
  0x3dba49e03b6fb504U, 0x3d23cbbd3c1c01afU, 0xbc02692a3dcb1dbeU, 0x3d66e1173dc23a1dU,
  0x3d0e80ba3df5a859U, 0x3e096d8e3cc2c932U, 0xbca0f2533ba05d65U, 0x3db9d5ad3de316d7U,
  0x3c6016f83ad5d1dfU, 0xbcf534b8bdaad248U, 0x3d56457cbd3f7dbdU, 0xbcfe9ebf3d07f037U,
  0xbd0b47f1bcc167aeU, 0xbd6729ffbc8b34d7U, 0x3d2cd9313cd20611U, 0x3da8816d3d9da563U,
  0xbd11e808bc3b4a61U, 0xbd0be5d0bd8cdc1cU, 0xbce7cff5bd85d05bU, 0xbcec9f4d3cf707d1U,
  0x3df9b196bcae4f19U, 0x3dc511473d27ffb4U, 0xbd2af3e63d28b9acU, 0x3c69445b3d60042cU,
  0x3d8e96733c03693cU, 0xbc0bbee2bd07fdc8U, 0xbcf68c2f3b956607U, 0xbcbefd533d3f3fb6U,
  0xbdb2151abce1f7c4U, 0x3c9a40c83d691730U, 0x3da735483d8e8868U, 0x3dcf05acbdd062d0U,
  0xbcde44103ce2de38U, 0xbd84657d3d6b59f4U, 0x3c19dab03cc31b30U, 0xbd0e08743dc2dd64U,
  0x3d43b0143c1bbef8U, 0xbc5866c8bd77194fU, 0xbc771238bd8df224U, 0x3cbeae283dbd8638U,
  0xbc9bf5843dae4f8eU, 0x3db5a3d03da0ea1aU, 0x3d9a8494bc0cf180U, 0xbda7fe65bd1de18eU,
  0xbd1e3bb2bd364a6eU, 0x3b1110c03c334c10U, 0x3c815f683d1f0664U, 0x3cf957e03d903a52U,
  0xbd7034c93d60eeb0U, 0x3d434ed43da25688U, 0x3dacfdaebbdf0f80U, 0x3afa5bc0bc3c2778U,
  0x3c398a103d79e950U, 0x3b8f4fa0bcde15acU, 0x3dbbfbe0bd66cab1U, 0xbdc446173d033c14U,
  0x3c7d6b40bda7f91aU, 0xbd9fa3da3d0f8e48U, 0x3cb747c8bd97c518U, 0x3dc4ef1e3d8d6e00U,
  0xbd9fabdcbcef4618U, 0xbd190556bd7fdcd7U, 0xbb68ebe0bd837a2cU, 0xbd321531bdcc45a9U,
  0xbc9572a0bd77c859U, 0x3b65b4e0bc8d07f4U, 0x3cb0e9bc3d908a56U, 0xbda08e183d276120U,
  0xbdb541fa3d65fe1cU, 0xbd1b3af03cfcefd0U, 0xbd47600c3dadfec2U, 0x3cee5978bcaa0bc4U,
  0x3c3e59d83d3a7148U, 0x3c6522d8bc638340U, 0x3dbc28223d66a180U, 0xbb32cac0bc872fecU,
  0xbce74b00bd950747U, 0x3dc6b7d2bc6e3250U, 0xbd5180a0bd80b45bU, 0xbd19847c3c8f312cU,
  0x3dbef5ccbd5a06c4U, 0xbd3a718fbda6d20dU, 0x3dc747d4bd95d410U, 0x3cea30803d223174U,
  0xbdbe48eabd6bb8e4U, 0x3daf1f64bb5b0e40U, 0xbd9a82be3c478738U, 0xbd4da8503bbe3400U,
  0xbdbeb5d1bd9e453aU, 0xbd8a8601bd0a7c62U, 0xb982ef003cccdca8U, 0xbd9a06adbda3d0d6U,
  0xbc4e98f8bd8565f2U, 0xbdd0de8dbdc1a21cU, 0xbdb6964abda8d15cU, 0xbd564a713d400cd4U,
  0xbdaff12ebd716eadU, 0x3d45bc90bc3ccb30U, 0x3d83d0843c07b6c0U, 0xbca377643d8b4228U,
  0x3db61b0c3d288660U, 0xbd702256ba44bd00U, 0x3cf0c0f03d52b5f8U, 0x3d4d473c3cf20090U,
  0xbc3cd598bdaaecdfU, 0xbd2628b1ba91a480U, 0xbd59408fbcc36d80U, 0x3c0a9b68bce2cdd8U,
  0x3dca8b703c64c470U, 0xbd977759bcddd3b4U, 0xbdb12b61bdcc9cf0U, 0xbdcdfdff3c6ee570U,
  0xbdac38a63d1d9908U, 0xbdab88d2b69b4000U, 0xbc2c83b0bca61d30U, 0xbc91a1d83d341e78U,
  0xbdb34ddfbd840c9bU, 0xbd1f4d2cbd2167ceU, 0xbd7f7b17bd682df8U, 0x3d26a688bd3e6801U,
  0x3d92341e3d89f504U, 0x3cd70d683d25f6e8U, 0x3d03ea003d8a4ff6U, 0xbdb03e29bdcd0cdcU,
  0x3cf6ed203d184654U, 0x3d9a8a3cbd8718bbU, 0x3d4d68103c6361e0U, 0x3b8bd3003cfdf978U,
  0xbdc933b8bd47dfb3U, 0xbd9788953d34cae8U, 0x3dbaf0463d14e658U, 0xbdaefc0ebd94cb02U,
  0xbdb8da03bd80a83cU, 0xbd91e726bcdc2708U, 0x3c01f0783c61a0e8U, 0xbc1a8a703db48be2U,
  0xbc7a9b303ce5d150U, 0xbdbf71c03d873d2eU, 0xbc80d160bc5c33f0U, 0x3d9afe963ca342c8U,
  0x3dce6ea2bd461fe0U, 0x3c9f24f0bcb44e70U, 0x3d3008f43da5ef00U, 0x3db1afda3d5261d8U,
  0xbca2d2843dbec9b2U, 0x3dbc48a8bdbc7786U, 0xbd4db6dcbd8e85f4U, 0xbbc088703d1981ccU,
  0xbda92e6abb74f4a0U, 0xbda80402bd38af29U, 0x3d7806d4bcef5f30U, 0x3d4c390c3d06d8d0U,
  0x3d7accfc3d8118b2U, 0xbd729068bc0c4db0U, 0xbd81b83bbdbaff2fU, 0x3d8d59423d7a3fa8U,
  0xbd977075bc5cbd08U, 0x3d85a3003cf9c5d8U, 0x3b8178703c287af0U, 0x3da649eabd4755feU,
  0xbdabc0d03d1fea44U, 0xbcad26f0bd891279U, 0xbd713861bb80d8d0U, 0x3db1e7dcbdc8fe68U,
  0x3dadf57cbcdcacb0U, 0xbd093ec4bd7bec7dU, 0x3dbadeb8bd7b1946U, 0x3dca0c283cd67a30U,
  0xbdac425e3cea1c58U, 0x3da08d34bd1bc498U, 0x3b2f5900bbcf9fe0U, 0xbda2db9e3cf0a570U,
  0x3c29811bbd17a1c3U, 0x3cc2dc7a3e0b8be6U, 0xbddcac73bd8955c8U, 0x3d1735783dadbb66U,
  0xbd08975bbd0543cdU, 0xbce9b006bc28d153U, 0x3db81dfa3dc330daU, 0xbcab38923d80912bU,
  0xbd9f67f8bc346e94U, 0x3db49e123de1c307U, 0xbdaf08913e056f6eU, 0xbd78d7763d526884U,
  0xba8df7183cca60c4U, 0x3d224879bd992dc6U, 0xbd2da1f73dee6aa2U, 0x3de6e30ebd032dd8U,
  0x3d6d9aab3dbd7d2bU, 0xbd9f595c3dac097fU, 0xbdc15922bdc35b54U, 0xbc0a59aeb98ea1a7U,
  0x3d884aaabdeb2a62U, 0x3ccebe813d0a90edU, 0x3c83645d3ca36148U, 0x3d407c88bc3b847cU,
  0xbd5b99dd3d617d23U, 0x3c800addbd1c47b3U, 0x3d8bd3153d4f6533U, 0x3d5a52df3dec3e66U,
  0x3df76e553da1264fU, 0x3d5cc50e3da669c3U, 0x3dbe66aa3d3c5b05U, 0x3d3240efbca37059U,
  0x3d478904bd087f0eU, 0xbcd0d326bd7e2f1bU, 0x3bd6fd533ce5ef5aU, 0x3d8843c4bd288735U,
  0xbbb64d5fbddde04eU, 0xbbfa3032bd0a2ab1U, 0xbce08be3bc96f46bU, 0x3d594c94bd3922ddU,
  0xb93b6cccbc46a714U, 0x3c9fdff53c80994bU, 0x3c466048bd8d4124U, 0x3ce18cf93d79636dU,
  0x3cb14415b92b52e4U, 0xbd0e4f45bda8dac3U, 0xbd095cf0bdaff21fU, 0x3de6aad03d457c30U,
  0x3dad743e3c185b1bU, 0x3d8427ac3d96dc12U, 0xbd94b8adbd87739cU, 0x3d72b4ae3d179875U,
  0x3dd406c93d10db74U, 0x3ccd3d393dac5b48U, 0x3d84c692bda6594dU, 0xbccae0fc3d339f1cU,
  0x3c092bb43d93d0bbU, 0xbdca630a3dc05251U, 0x3de269e43d4dda75U, 0x3d57c1173c3aa042U,
  0xbd5c40e73d444f91U, 0x3d10d5cabd534663U, 0x3d0c30343dd1fda6U, 0x3da439173d9e8f42U,
  0xbd85332cbc6df36cU, 0xbcc5ce763da562b9U, 0x3d1f64bfbdda6adbU, 0x3d9d6d1dbda98bccU,
  0x3d165badbdccb927U, 0x3da49859bd8a392eU, 0x3da6a595bdca48a0U, 0x3d27d2cebd8188c8U,
  0xbd8affcabd8a5d8eU, 0x3d1a79f6bd986463U, 0xbd4159173da6f42bU, 0x3c1884f23d98fd1dU,
  0xbdb4a021bd8b22a9U, 0xbd99bfd23d29424fU, 0x3d5e00b7bd132b24U, 0x3d7c39b53d1f6f8aU,
  0x3dbbc0febda58b1bU, 0xbd972ef63dae953aU, 0xbd5e8e81bd3f8e40U, 0xbd9c0983bdc7e54dU,
  0xbd226d25bd9df832U, 0x3d597ee3bae6ec02U, 0xbd89bd97bd8c3686U, 0x3b0cba9a3d7fa297U,
  0x3d948bfebd1c983cU, 0x3d6bdb323cc39b2fU, 0xbc9c23683d49c4f7U, 0x3dbfad91bc5d08dbU,
  0xbd9f5987bb907974U, 0x3d271de4bdaa3393U, 0xbd939d0c3cc88779U, 0x3d96e72a3dcff81eU,
  0xbd4438e93db439f1U, 0x3ddfe6913d73d669U, 0x3cd20cc4bc2c4795U, 0xbd24f8e83d059358U,
  0x3da58e71bbb4c831U, 0x3da2914bbc0b6114U, 0xbc08d4f53ce4fbd9U, 0xbc990288be03dfdbU,
  0xbce5dd6abbbc9ac7U, 0xbd3e4c8bbd463eb8U, 0x3c36f2c53d810d11U, 0x3d793f62bca8d7deU,
  0x3e06cb8d3da3cfc1U, 0xbd890240bd68c46eU, 0x3da72b103db3a6f0U, 0x3ded24853dc99486U,
  0x3d5237d6bd76709cU, 0x3d94cdf0bda38512U, 0x3daa2c473c8266b2U, 0xbd0748d03c0bab1fU,
  0xbdaa515ebda857f9U, 0xbcc10313bcceb429U, 0xbd669652bd80e57bU, 0xbd649f78bd8f0fd0U,
  0x3cf0b6153dd45e56U, 0xbcf1f72a3d8654afU, 0x3d9542403d3ec7d4U, 0x3b09e2e7bc270e2bU,
  0x3db9c1cd3e093324U, 0xbd49fca73ddada71U, 0xbdc554a63baf1df8U, 0x3b8e83acbc7187a4U,
  0xbcfbd93ebb91e245U, 0xbd8bbd7ebaaf7dfaU, 0xbb23ec44bc318771U, 0xbd8fe7793d3687c8U,
  0xbc7c58e5bdbd6c21U, 0xbd38061e3d87f719U, 0xbdf35c5abd7da2a0U, 0x3d8f2c053ae1f16cU,
  0xbd8b3d643d9a426cU, 0xbd647a323d4a4338U, 0x3d2c427f3de6196dU, 0xbdc1e3f33c210617U,
  0xbcd21687bd8fd2f5U, 0x3d9aa19c3da3033bU, 0xbde2ec053c5ddf6aU, 0xbd8dc9123db78934U,
  0xbdce09c73b4add0dU, 0xbdd35b4d3c614a5fU, 0x3da4e39ebdc773b0U, 0xbda94bd4bd8b0b79U,
  0x3cdf69c0bd052fadU, 0xbd80bada3dd1f6b3U, 0xbd418a96bce3bb0bU, 0x3dc26fea3c4a1b3dU,
  0xbd2ef8103d45c4d9U, 0xbd93a559bdcd6d7cU, 0x3cf73991bd6fae27U, 0x3cc6af043cd8ac94U,
  0x3dc6ae753dcc6848U, 0x3c7a0c7bbdd2ce9eU, 0x3d90ca3a3dd66826U, 0x3d25e573bd113baaU,
  0xbd4649bb3d84fad8U, 0x3d1f3ca43dc289c4U, 0x3db47ea1bd2bc842U, 0xbd860831bb81872fU,
  0x3d138a5e3bd2868aU, 0xbd8c3b773cfbf241U, 0x3afe7f2fbd89b39aU, 0x3d92c578bc849477U,
  0xbd36bba0bcd5cdf5U, 0x3d3b419e3d7f49d2U, 0xbdc5bd433ddc4dcbU, 0x3de567cdbce814d1U,
  0xbd69f859bd6fc2ceU, 0x3d8075f9bd140ec8U, 0xbd3cd5cabd66c95bU, 0xbd452d043d97a25eU,
  0x3da91650bdd797dbU, 0x3d519218bd1bfb61U, 0xbaed395c3d4c8a0bU, 0xbc543e36bd5ada5eU,
  0xbdd8225a3d4da884U, 0x3c4ad5153ce43cfbU, 0xbda8ec84ba67be54U, 0xbcf0a65ebd5bcbecU,
  0xbd3c962f3d37c237U, 0xbd9676e0bce0b2ebU, 0xbc436bed3cd28969U, 0xbc869787bdad3ee6U,
  0x3da408a1bd8776a1U, 0x3cccfd79bce35000U, 0xbd8e594d3ce56896U, 0x3d43252a3db3cb9cU,
  0xbd3baba7bcbdc3f4U, 0x3dc0ee1f3db42be6U, 0xbdabd310bd10feccU, 0x3d2b3c973b52aed3U,
  0x3d739a583d5e79a1U, 0x3d1603033dcd9086U, 0xbd8f7f923c361e89U, 0x3d6ed9373d7e8b31U,
  0xbc1e52fd3de15496U, 0xbd9b24b3bd3500f6U, 0xbc0a51d93de37cd9U, 0x3db913a8bd967653U,
  0xbdef5ca53d754412U, 0xbcd31c7cbd3c941aU, 0x3da7fab03de50264U, 0xbd1c5aab3d7dcb8eU,
  0x3dacc527bd8d4dfaU, 0x3d4a14c63c7785cbU, 0xbb52ecffbd580e3aU, 0x3d723f41bd4365e0U,
  0x3d961e9c3d9e5648U, 0x3dba625d3df25db4U, 0xbd28e8fdbccd45cfU, 0xba960124bd99a707U,
  0xbd6ed6d5bc959110U, 0xbbd398ff3ade2592U, 0xbd3bc17cbadd27bcU, 0xbd5eca1a3db770c3U,
  0xbcde42e33c1c0c24U, 0x3de1c3853c1c94efU, 0xbdea115abdab4926U, 0xbd368c6dbd3811f7U,
  0xbd5bf0623d3f6fe4U, 0x3d2595113dbe8855U, 0x3caec1033c343ca0U, 0xbc0843523d861046U,
  0x3d3ada083bab1047U, 0xbd7825f73c1efee2U, 0x3d44c43bbd9e3c53U, 0x3df0af7a3d0333a8U,
  0x3d3eca683d78ae89U, 0x3dee59913dcd81deU, 0x3ac14a4f3d23eee2U, 0x3c57ebf5bd527f7bU,
  0x3c4362d53dec9039U, 0x3dc85b7cbdb0d7c9U, 0xbd0bff26bd3fee65U, 0xbd4910bebd1d6aadU,
  0xbc360c6a3cef765dU, 0x3d6f326bbdb55c8dU, 0xbcf491c3bc1efbf3U, 0xbd96bd26bd7e3e5aU,
  0xbd70c6003d2f2fd7U, 0x3da0db143d86aabdU, 0xbdadca2abda10784U, 0x3d635efebe008ea5U,
  0x3d74412bbd94b6d8U, 0xbde84d443def709cU, 0xbd8ab236bda6e8e4U, 0xbb7891a0bdfde276U,
  0x3dc96f71bdacb396U, 0xbd8af4293d46fc67U, 0xbd70f430bdc25bb3U, 0xbcd84e163d151a9fU,
  0xbd4848d6bc91475bU, 0xbc86677e3d15e7b2U, 0x3d0601d5bced3170U, 0xbd8113123de0383aU,
  0x3d9e46aabd86b2e8U, 0xbce26a09bafd591eU, 0xbd8d064fbd3ac259U, 0x3cc8f2ea3d4e43bdU,
  0xbd985bb5bd7fe55bU, 0xbd1bd0e03d324926U, 0xbd0e531ebd8e1be8U, 0x3db49fdbbcdfb62aU,
  0x3bb928ed3db55a1dU, 0x3da6edc53c9b3f1dU, 0x3ddf3f09bd6ae029U, 0xbd0373d5bd1ef798U,
  0x3d944e533cfb38bdU, 0xbd7f8c813d63e389U, 0x3dc7ebd33d827226U, 0x3da4367a3d06e872U,
  0x3dce102a3da78aefU, 0xbde2f63ebdcf66c0U, 0x3d6f635e3d982c4cU, 0xbdd814eebd27938bU,
  0xbd2679553d87d406U, 0x3d07b2dcbdc7ce06U, 0x3c0f1885bd1d4872U, 0xbd879118bd448ff4U,
  0xbba1bf753d0025abU, 0x3daddef7bbbe2b9fU, 0x3c262d23bdad4bffU, 0x3cefc02fbd07b949U,
  0x3cf813a13d981cbdU, 0x3d2b3e02bd4c8724U, 0xbd7a83da3be881adU, 0x3d92569d3d8363b7U,
  0x3aacf60c3d29a649U, 0xbd8f617cbc21210bU, 0x3d9d7eb7bd65dad1U, 0x3dcf0893bdb48a04U,
  0x3b90f2dabd96364aU, 0xbca735cfbd91fcadU, 0x3da159f5bd86b474U, 0xbdaa2cedbcf85444U,
  0xbd47f277bda2599aU, 0xbbe839c03d926881U, 0x3d3809e5bd8d208aU, 0xbd2027b33d3f3ff9U,
  0xbda821513d34f561U, 0x3d572cc8bd7790e8U, 0xbd3d1b2fbc2412bdU, 0x3d53668d3d20ef36U,
  0xbdcc10a5bd0cc78fU, 0x3dbb462fbd984bbdU, 0xbca3f599bdf8c404U, 0x3dbfc82b3d43a0bcU,
  0xbd14c6babd57ca7bU, 0x3dd1be42bdc30b17U, 0x3d68bfb9bdbfb4f1U, 0x3cafa3aabd6fef27U,
  0x3dc3baba3c01d107U, 0xbdbf4be9bdc09f89U, 0xbdceb568bdb524e4U, 0xbd797aecbd8f1f64U,
  0xbcd96d8ebda21828U, 0xbcb9a725bbcf39b6U, 0xbcd75da13d4aa3b0U, 0xbc11273f3d9740e4U,
  0xbd9a625cbda17711U, 0xbd9385f03d978840U, 0x3ccbbdd23c9b86cbU, 0x3d957a91bd388b82U,
  0x3cee35d23d0c3748U, 0xbd83e7df3d8bd4d0U, 0x3dba6514bb235a01U, 0x3bff21c1bb4be530U,
  0xbd89405a3d315f60U, 0xbd1b41f53d244932U, 0xbdb29313bc7668c5U, 0x3d8487443dbe6525U,
  0xbda43a66bd6c56c7U, 0xba753f84bd97b424U, 0xbd65205abd8c5f77U, 0x3d1b5fc83d089c53U,
  0x3d12c07abd435141U, 0xbce872c3bc260ee8U, 0xbd09d49ebd35a18aU, 0x3bee25ecbcf20b85U,
  0xbc96e0f33b2d94c8U, 0xbda5192bbd447280U, 0xbd9bb7f9bd2d6fc3U, 0x3cc70384bd0497b0U,
  0x3d2b1e9cbd57cb4cU, 0xbdb3ab973d9eb564U, 0x3d8a9b863ca581cbU, 0xbc913faebcc1d688U,
  0x3d15e25bbde04b08U, 0xbdaf9e9fbdcd5628U, 0x3c817ca43cf2a720U, 0xbdb764e43d4bc696U,
  0xbdb21d2abc009c14U, 0xbd1855303d987d43U, 0xba98646c3db063c0U, 0x3dbfa5d4bd0556e8U,
  0x3d71d8103c4abf14U, 0x3cdd7c81bdd49135U, 0xbd08371abd556f1eU, 0x3d708c80bd570d1bU,
  0x3dba8aa4bd5097a6U, 0x3df1e0be3d441728U, 0xbdbb2b07bd97d9c2U, 0xbd3ba09bbcc42493U,
  0x3d846ec8bd72f5c1U, 0x3da96a98bdc03ac4U, 0xbdbce034bcfc5371U, 0x3c374de23bec40bcU,
  0xbd6332943d98a73cU, 0xbda25d4abd66996aU, 0x3d877c9f3dc7fd3eU, 0x3c2f9f023c864f60U,
  0xbd0888f73d2bfc19U, 0x3d6eabcfbb7576f8U, 0x3d2aee523daa6494U, 0xbcbaa35bbdceafd2U,
  0x3d5a7b5dbca71a30U, 0x3d9928193cd6124dU, 0x3d88b7c43d97aff9U, 0xbc9f4dc7bd983dcfU,
  0xbd92954fbd44bff3U, 0xbda457acbd22eb25U, 0xbda4d9023d842a25U, 0xbcc130ab3d828413U,
  0xbd90442f3d80a0fcU, 0x3d6a6842bd11eef3U, 0xbcb1c9ea3da7a444U, 0xbd90984a3d21cd33U,
  0x3d911e5f3cadc800U, 0x3d41cc27bd7ac643U, 0x3c9511833d86c7d8U, 0x3dc99401bdc03a01U,
  0x3d85b9a13d639efdU, 0xbdb20a833c1897e9U, 0x3d8fadd13d4fd645U, 0xbce0b6713d4ad717U,
  0xbd820a743d60d95aU, 0x3dafe3f83d1d4b07U, 0xbc3d389a3cf5d063U, 0xbd911ca9bd8ab085U,
  0xbdce4d44bd1a3aaaU, 0x3d75bb13bd87ce0cU, 0xbd1fbbe03c8e70a5U, 0xbafaeb78bd392531U,
  0x3d21037c3d0547d5U, 0x3d806984bda99e7dU, 0x3d8b27723db74b1dU, 0x3d5f5857bcc8af9dU,
  0x3c9a0d11bdd42aa0U, 0xbba07ef0bdb62f90U, 0xbc855de23d414a5fU, 0xbd26a1e9bcbb03bfU,
  0xbd3bbb583c757370U, 0x3dd4eaa53d9c83aaU, 0xbd9a8b61bd3ddb40U, 0x3b972850bd56f222U,
  0x3c95152b3cb491e4U, 0x3d1ef3783d63bb47U, 0x3abace163db075f6U, 0xbcd45f48bd0f627dU,
  0x3d865eb03dc624f1U, 0x3db2d9b93d54477cU, 0x3d8402b0bd1da9bfU, 0x3d60046d3dc2e860U,
  0x3d0fddeabcd1301aU, 0x3c5a95db3c004da7U, 0xbcc435103dcbde4fU, 0x3cd400053dc76523U,
  0xbc9a589f3d266216U, 0x3cc164003d54deecU, 0x3db9e50bbc871cb8U, 0x3cc9f7a43ce60e8cU,
  0x3d4eeb4fbd638488U, 0xbd77a95cbd4e7fa0U, 0xbc972866bd075756U, 0xbc795b67bd45a68cU,
  0x3d1ab80a3d4743afU, 0xbd46eb0bbb780166U, 0xbc742faebd92f9c1U, 0xbd20bb2dbdc476caU,
  0x3c60fd853da2dd1aU, 0x3d23a616bd1e876fU, 0xbc95a688bce644c3U, 0xbd9e407a3d86b29cU,
  0xbb64bb8d3c7400a8U, 0x3cc8bc8fbdad87dfU, 0x3cc6468c3dcfc91bU, 0x3d40e9173d2a0193U,
  0x3d8db4e03d6a373cU, 0xbd9df3083d96c149U, 0xbd4219473c5e5024U, 0xbd36b2c03d65f059U,
  0x3d91b2e13dc714ecU, 0xbdc57e4bbc2eb3f5U, 0xbd806e0bbd87b688U, 0xbdbb10113dba4bd8U,
  0xbc2f59e93da7e696U, 0x3db76d8e3b053dc4U, 0x3d445b393bac4d11U, 0x3bc5911dbce9f641U,
  0x3d1a9d173c3f7d82U, 0xbdb20b02bdd27b2dU, 0x3daa20133d1bbef7U, 0xbcae7735bd3c4e18U,
  0x3d95fe493d6b18f4U, 0x3d117cedbdc9bcd4U, 0xbdb86ec63cd34797U, 0xbcec87373d82b498U,
  0xbdd8714bbd952942U, 0x3d1115f03bbc816fU, 0x3d576ef4bcd0899cU, 0x3d8a17babcc946feU,
  0xbc5d1f1e3d56a72dU, 0x3d3bd9743db6bae1U, 0x3d6077ce3d73edb8U, 0xbbe2809b3dc5e1cdU,
  0x3d2c89c4bd7fe86aU, 0xbc6134e3bd98b953U, 0x3cbf25153da2fa03U, 0xbdcc66273c2d148cU,
  0x3d62ccc73d806047U, 0xbb98d91d3d9f8f3cU, 0xbdc825f73c2acd46U, 0x3d88f6c2bbff937aU,
  0x3d6c5642bd154bb4U, 0xbdacbfe6bd391fa6U, 0x3bcc0e11bd16a962U, 0x3d97e58cbd3994ebU,
  0xbc96e874bd99569eU, 0x3dba25dabd98a326U, 0xbb70aa603b25d987U, 0xbd6ef5763d981270U,
  0x3d9d2c48bd999413U, 0x3c7505693b0c0711U, 0xbc9ad38cbd70c21eU, 0x3d8e7d25bdaec05cU,
  0xbd79edbe3bc17320U, 0xbd8f3caf3bf19d19U, 0xbcfddf303d564319U, 0x3d58bb6dbdbfb61cU,
  0xbb244c503da73090U, 0x3d27e1b9bdb1b69cU, 0x3d689bd1bdbecf40U, 0x3d46937e3da3d231U,
  0xbc8290d23c9636daU, 0x3d85d8193d5ab6bdU, 0x3d4e31a4bdd82912U, 0xbd376396bca93a86U,
  0x3d76384abddee356U, 0xbd279301bd27d4fbU, 0x3ca0b5483d2aedbcU, 0xbc8e1576bd8de563U,
  0x3d4c559ebdadbd25U, 0x3d5027903c72d8d5U, 0xbd923f20bdb091f8U, 0xbda03ad5bc1757c3U,
  0xbddf1ccdbd6e0830U, 0x3d0fa52cbd923c88U, 0x3dbd909a3d9a5391U, 0xbdbd58183c2ba89fU,
  0x3c6d3caa3d6c00e9U, 0xbd7e0508bc70791aU, 0x3d382dce3ce8861aU, 0x3d9a8f38bd833ee5U,
  0xbdbc930c3dc1b170U, 0xbd27d0df3d975d0eU, 0xbd8d6c8fbd5f64f7U, 0x3da5b44f3d1beb0eU,
  0x3c8c279bbd485da8U, 0xbdb6c8193d31848aU, 0xbdb5eb2e3d83eeabU, 0xbd8b1d853bab1c03U,
  0xbddba0b0bc4969c3U, 0x3d2a501d3d8c619eU, 0x3dbf482abdab4b71U, 0xbdc4e9a0bd8ac540U,
  0x3c4f918abd97f7d4U, 0x3d35cf94bd973b42U, 0x3c683f20bd8985faU, 0x3d6dc952bd843029U,
  0x3d81ea8cbcc6a0edU, 0xbda3cd9e3cb2af09U, 0xbdb11443bd0355b9U, 0x3db7c03c3da4aedaU,
  0xbd752093bd92bc4aU, 0xbdc40732bdc39329U, 0xbcb4fa60bd8e65a5U, 0x3da64b633d780007U,
  0x3da36d6f3b2786daU, 0x3d97a0bd3cd83d23U, 0x3d0da1953c58e678U, 0xbd963d2abd552ca5U,
  0xbb591a7f3d82d6f4U, 0xbd7a95243d2945bfU, 0x3cc3d0bbbd3b2705U, 0xbbe9ec6bbd08329fU,
  0xbd3801aabd5120d4U, 0x3c462f6abc9cafabU, 0x3cb058c33d0a1756U, 0xbd92e22ebd332574U,
  0xbc7bca66bd0fa306U, 0xbda771163dbabcacU, 0xbb9cbe3d3cdb7da2U, 0x3dc0e1bcbc42dce2U,
  0xbd870eb9bc9d8962U, 0x3da968613d19d864U, 0x3c9809dcbb321779U, 0x3c9dfc03bc74d2d1U,
  0xbdcb94cbbd5aaef0U, 0x3dbc6979bd54ef7eU, 0x3c4909d8bdc14ddcU, 0xbd9f120ab9baa3c9U,
  0x3dd2a734bbe4f07cU, 0x3c45a37f3daacc16U, 0xbd7eed4cbae626f4U, 0x3dd419d43cabd56fU,
  0x3d1ef5fc3d200391U, 0x3cc495163dcf7d2aU, 0x3df4aa0d3cfe3323U, 0x3c96d3ebbbc9436aU,
  0x3d46f9c2bcf14da2U, 0x3d0aad243cbcd74cU, 0xbc9d3630bd6c0b80U, 0xbdb79a203d95dc56U,
  0x3dc9c5e3bd489e49U, 0x3cbe42293da30c18U, 0xbc56544f3d699fc3U, 0x3de00f9d3dab8534U,
  0xbdb4042d3d278e41U, 0x3d9fc17ebdb7fd6cU, 0x3d04c0dcbc1758f9U, 0x3dbf33173dcc6b55U,
  0x3ce5de5cbdb2d392U, 0x3d1aa2c8bd86f891U, 0x3dee074d3da3568bU, 0xbd46cde73d10f806U,
  0xbd416742bd28272bU, 0xbd930f983ded4553U, 0xbdaa94a4bd30ae7cU, 0x3cb86b5abbdde2c8U,
  0x3c780469bd8d9279U, 0x3d92d54c3dd01eecU, 0x3c912771bd0ac57cU, 0xbcb9591a3d9c6fb7U,
  0xbd55f684bd9d94ccU, 0x3de1fa233ced95f2U, 0x3c1f6968bd9847d2U, 0x3c32b6bf3d085dfdU,
  0x3c33a9ad3d09d70dU, 0x3bed5fdebb231aacU, 0x3c1a8a07bd8f0d56U, 0x3ce47dbbbd03b598U,
  0x3da584fe3d2e2602U, 0x3b2c9c363d3bcd67U, 0xb8a5c0103ceac8aaU, 0x3c42219fbc285a5aU,
  0xbcd8ad583cf8742fU, 0x3d6293aa3db9e1d7U, 0xbdd23606bd61458fU, 0xbd6bb6313d9770faU,
  0x3cd225523de5e85aU, 0x3d216c7c3d2cabd0U, 0x3d865414bc4d11f4U, 0xbd6e8eb53e03b80cU,
  0x3d3f2b7e3d1ed463U, 0xbd3b47f63d8d8dccU, 0xbcba9c36bd94bb16U, 0xbd345d21bd9e6cd4U,
  0x3d8a13923c0f7d18U, 0x3def014f3b0c80ccU, 0xbd88f19f3d8a04acU, 0xbc2430b4bd652b20U,
  0xbd4782febc214f3eU, 0x3d882668bd98ec73U, 0x3ad843953d286aedU, 0x3cdbae24bd0e4296U,
  0x3dca89703dab31ccU, 0x3c85a8bebda90adaU, 0x3b8fa66e3da47d99U, 0xbda58c84bc773137U,
  0x3b7a0a8bbd93cb9dU, 0x3d84aa943cca6faeU, 0x3d8022ac3d0b8856U, 0xbd6537793d147625U,
  0x3db27ef33d6351d3U, 0x3de3c1ef3d9ef3bfU, 0xbc8b95c33d60d8cfU, 0x3db9418b3d90470aU,
  0xbda8d94d3c5f26c3U, 0xbdb7dad63cf7b948U, 0x3c8737bf3db7d043U, 0x3d609ac6bdac3b0eU,
  0xbd92ceec3de3b9d4U, 0x3aba8e973dc9832dU, 0xbdae4dbe3d0c3ab4U, 0xbc5f34d13d8cc77fU,
  0x3c6549bfbcbf8f9dU, 0xbd73d9edbcaadafaU, 0x3d3a1d7abdbc318aU, 0x3cd1c00fbcdfe34dU,
  0x3cbc4006bdcaf73eU, 0xbd4aac203d80f8afU, 0x3dddd34ebdbb19d8U, 0x3d22cf7d3ca3deebU,
  0x3cfc7edfbd8f43c7U, 0xbc718d913dcdd322U, 0x3ca9297cbcbf8aecU, 0x3d9f3d493caadad1U,
  0x3bceebd53dc22bf1U, 0x3cef39083cc9e445U, 0xbccb03e3bc741744U, 0x3dae1fd7bccf4ec6U,
  0x3d9d19d8bdabf27cU, 0xbb8344443d8a954cU, 0x3cfb2f42bc841e55U, 0xbdc762693d305767U,
  0xbb8884eebcdfbf0bU, 0x3d46f2dfbcec9ffdU, 0x3d78febb3da574acU, 0x3d1f7e173d0778bfU,
  0x3bf9240f3dcbfdfeU, 0xbc8b4182bc9964c3U, 0xbc8f7617bdbb968fU, 0xbd284112bdc0972dU,
  0x3d7ebad9bdab2490U, 0xbc2990eb3d91239bU, 0x3d38eeafbc2bbebaU, 0xbccd50fabdcdcf0cU,
  0x3d722d38bd0140fcU, 0xbcb15614bd0c1633U, 0x3c64410e3d60c29aU, 0xbd2927fdbd805183U,
  0x3d334aad3cc2126eU, 0xbd34e4653d913f0eU, 0xbd655498bda152d2U, 0x3d9b839dbdbe5bd1U,
  0x3c9fce343cdecaf5U, 0xbcfc15883d64ef43U, 0xbc2de8813dd8c32aU, 0xbdb6c8e93da5e736U,
  0x3ddfda6cbdabbae0U, 0xbd9d3d243d6edf86U, 0xbc659f9abd845a5aU, 0xbd210160bd9a5a79U,
  0x3cd458543dabfcb8U, 0x3d8aaeaf3bfeaa5dU, 0xbd618240bd1a3c0fU, 0x3dc9bb043d5333e5U,
  0x3cd4b96fbd994f55U, 0xbd5a76fb3db35616U, 0xbbdce94c3d5371ecU, 0xbc04d16ebd24184fU,
  0xbd4207763ab81d71U, 0x3db70bb73dc10b32U, 0xbc205fe93c516016U, 0x3c85165c3d66ec01U,
  0x3d55d52cbd9ef963U, 0x3d041116bd6cc34eU, 0x3db01e053d94d247U, 0xbbf00f12bcd9786dU,
  0x3d035a6d3c9a27b5U, 0xbe012e8a3d94ce2bU, 0x3b529c913dba7324U, 0xbd4c92a63bd2a895U,
  0xbb770915bb6d385cU, 0xbccc04ae3d7dd08eU, 0xbd3e7c4abdee8ba3U, 0xbce1df273d6cbdb4U,
  0xbd5a7ab73dbd3a82U, 0x3de812a53d9aea9bU, 0x3dcc15ebbd67083dU, 0x3c8f64d9bda21620U,
  0x3d25a4813d8e2832U, 0x3ce6fbb43cf92902U, 0xbd8b76f23d2c666bU, 0x3d363b6dbd2313a8U,
  0xbde288673d7b6f39U, 0x3caeda1bbd4bcce6U, 0xbd26264d3bdf7010U, 0x3ccf2c5bbd6e0b9eU,
  0xbd83d5cabdb52da3U, 0x3d1a9e95bd9cc388U, 0xbd43a4103c1e1428U, 0xbd28924abd4f0f6dU,
  0xbc6e0168be0a9e94U, 0x3cbd9bf3bd050851U, 0xbd9b8c3cbdb68abdU, 0x3c971a093d51dec7U,
  0x3d82acb6bd89a364U, 0xbd2878febd753f46U, 0x3baac6edbda817a3U, 0xbc68ae27bd2d6bd2U,
  0xbdd284703ddc0923U, 0x3db169c7bdabc233U, 0x3cb80f35bd545705U, 0xbb5a09fcbd70c646U,
  0x3dc2a40cbd34dde4U, 0x3d8a3e413dc40139U, 0x3c4dcc8c3d02c00fU, 0x3d9c2339bdac1326U,
  0xbb8c19d1bdc948f0U, 0xbd2d60a73d8ee19bU, 0x3d003a623d436740U, 0xbd92189e3cc1222dU,
  0xbde1b44e3d0193e7U, 0xbca4c83e3cbdafb2U, 0xbda4fdc43db0434fU, 0x3dcb9d5b3dc186b4U,
  0xbcd27ae3bd065b76U, 0x3b7561423d05eb18U, 0x3dcff66f3ddca296U, 0x3c01f3743d99c0acU,
  0x3d89090f3d1f1d70U, 0x3da5d327bda380cdU, 0x3d192bdd3babd6c3U, 0xbd5aa9413da3fc26U,
  0xb9f62624bd94b3afU, 0x3dee45b03d8706eaU, 0xbd7bf4913d9ab57bU, 0xbd3d421cbd786e8eU,
  0xbc7cc496bdfe6a64U, 0x3d55e15ebb66efdaU, 0x3dbba2d7bc7b730fU, 0x3d10d642bdafd86aU,
  0x3bd748a03c9c83c6U, 0xbd9dce71bd23e1d6U, 0xbd68c9523bd6878fU, 0x3d5699ee3deba983U,
  0x3d9a25703cf005a5U, 0xbc8c1399bd8b0bcfU, 0x3db61767bc38e671U, 0xbdc03c3abc015154U,
  0x3db74fb73c481aecU, 0x3dee98d23b918d8eU, 0xbd9db61c3caee8b5U, 0xbd9f1258bcf30c37U,
  0x3d997d5dbdb84398U, 0x3d05e702bbe400bdU, 0x3d97d8c93ddb63f4U, 0x3d9f8ca1bd1a6379U,
  0xbc3e0a3dbd26f32fU, 0x3c95fda1bbd9351eU, 0xbc26450ebd7ef172U, 0xbcf8eec9bc227212U,
  0xbd94a6c9bdb62e2fU, 0xbd8efd9d3d8426d6U, 0x3cd40252bdc071a3U, 0xbd0da1743d9b174aU,
  0x3dd5eea4bdcf9962U, 0x3cd0bf63bc6ee485U, 0x3db1e390bd1a2615U, 0x3c16fd063c3864ceU,
  0x3d77236a3d872cc7U, 0x3c5275b2bd8d21d7U, 0xbdc38cdfbcc92e2eU, 0x3da6231e3da76663U,
  0xbd5d974cbd56ed8aU, 0xbd0a0f433defb649U, 0x3dd12ecabd45cc51U, 0xbcd474d23deb3f26U,
  0xbd8b4f5f3db727bdU, 0xbca18bcdbd5e16a2U, 0x3ca656fe3de925ffU, 0x3df5acad3d76e052U,
  0x3d01c71b3de9f6f4U, 0xbcbd93fcbd2bff37U, 0x3c0ff9983deb6225U, 0x3d095c71bc8f99efU,
  0xbd49f8903dba1bceU, 0xbc21c52dbcc7beddU, 0x3d8fbc3c3ddfb29cU, 0xbc9238073d22babfU,
  0xbd8b46183dc1bdd0U, 0x3dd56e0b3d7d2247U, 0xbc34b54c3dc93cacU, 0x3dd4cfbcbd96331cU,
  0x3de8478f3dc81a2cU, 0x3d8213403dcc52f1U, 0x3d12151c3d22c9fdU, 0xbd96f7aa3df900b8U,
  0x3d67591fbca937d5U, 0x3db708563d4a331aU, 0xbc374a453dcb1323U, 0xbcb4b022bc1de0d3U,
  0xbd7ccf203cc0a46cU, 0xbd248f94bd14efceU, 0xbd901dab3bc794e6U, 0x3d9bf7f5bd9f3905U,
  0xbd78bbf33d4d0742U, 0x3cf631dabd860ae0U, 0xbd82b336bd811389U, 0x3dceabf7bccf6b7cU,
  0x3d8079ba3dcc4fcdU, 0xbd5c7e7dbc2461c5U, 0x3da32b203cfa32e8U, 0x3dda68e63daa4fb1U,
  0xbd6fe30c3dacacedU, 0x3d67e5b13d715d9fU, 0x3c2331ad3c8839c3U, 0xbce506e53d1932a4U,
  0xbd7bf486bd012435U, 0x3abb17243da91c7fU, 0xbd80ece2bd6c5765U, 0x3de1c5743dd0695bU,
  0x3d5ae11a3dcbded0U, 0xbd49fc2d3d1f63aaU, 0xbd3380073dbb167bU, 0xbd29dddb3d85f8efU,
  0xbca56184bd5691c9U, 0x3dbb9b263d20f10bU, 0x3dc20edebd2f4e8bU, 0xbcefa190bd0983c9U,
  0x3dfa57483e06da32U, 0xbcca83adbdab928bU, 0xbcfb2b093caa261eU, 0x3da15d18bd196ca2U,
  0xbd2d6f3d3d4b7e8fU, 0xbbc22980bd130a74U, 0xbda49cedbd865c6eU, 0x3dc3816a3c0fb551U,
  0x3dc62595bd07bbbbU, 0x3d3cfb703d8de99dU, 0xbd2df40abda911d4U, 0xbdaf2f58bc19daaeU,
  0x3a8d469bbd84531aU, 0xbc35cc393d95be8cU, 0x3c80d6423c621d72U, 0xbca201f0bd86ef9eU,
  0x3da11aa83d830ad2U, 0xbd76dcc4bd3e4942U, 0xbd9011843dbbb572U, 0xbdb5526c3cbd2244U,
  0x3c0744a73d7bc24eU, 0xbd81d6f33c44315dU, 0x3de3be043cb9a280U, 0xbd0da1773d2ac17bU,
  0x3da69bc33dd7777bU, 0xbc87067e3d1a2fffU, 0xbd4fe75a3d941fffU, 0xbd9c6c5abd89d269U,
  0xbdbf73efbcdcbeb3U, 0x3b26236fbd110f6aU, 0x393a01c63d6c6f51U, 0xbd3fc315bb75e080U,
  0xbd3158ab3de1b340U, 0x3bf850003d9e70daU, 0x3d80f23cbd8b6cc8U, 0xbddaef073d1ff017U,
  0x3d3e39783d88039eU, 0xbd4081ee3d34ad98U, 0xbdb6589a3dbeebb9U, 0xbc601b52bbf101caU,
  0x3ddf3dbd3da2bb78U, 0xbd827b283de00560U, 0x3d874dd73d8b1918U, 0x3d32557e392e14acU,
  0x3cb389f43dbbd91fU, 0x3dc75146bc964a78U, 0x3dbe28da3c7f52c7U, 0xbc7bb21f3dbb2ae6U,
  0x3d0acb453dd40595U, 0x3d0e90d13dc5b101U, 0xbd1ccde1bd99beb1U, 0xbda1671b3da49631U,
  0x3c5121fc3d1e616bU, 0x3c8332f9bd0437e7U, 0xbd0048dabdbb2c02U, 0x3d34a9523e035912U,
  0xbc36d71abd3a74d4U, 0x3b47cee63d8caa3cU, 0xbcb216003d36bfabU, 0x3bf3d90cbcd8eda1U,
  0x3d249aa6bd7d7ed8U, 0xbd79ffa23dc21d99U, 0x3dbaa686bd375573U, 0x3d3e05283d8c8954U,
  0xbdb7e8ae3dd6ef43U, 0x3a713a963c6ecfb7U, 0xbd94f3c73d8aba0bU, 0xbdcfd58d3d7f7ee4U,
  0x3c5663d73cfce355U, 0x3d86a2693dbbb673U, 0x3d75a6ccbdc73c0eU, 0x3da23006bd1cd3d0U,
  0x3dac069f3c4b6397U, 0xbdd76f98bd8ecab7U, 0x3d6ee0bbbcef5854U, 0x3d4d788e3c8d615eU,
  0xbc8018eb3ca75735U, 0xbdb14804bdd15646U, 0x3cfefbc2bb16c755U, 0xbd7aecb23d1644e9U,
  0x3b6d03c43d218bc9U, 0xbd88db603cdca372U, 0xbbb4d334bdb73710U, 0x3d08731ebd2889e1U,
  0x3d2246903dd2018eU, 0xbce857923d69ba07U, 0x3dcb494d3d3d5b74U, 0xbd0758a93cb633efU,
  0xbd81a3f13d1c3114U, 0x3cf7357f3d31b108U, 0x3d6b64aabd8be184U, 0xbc2713c3bd99ead1U,
  0xbcf7c58bbd9204aaU, 0x3d54ec36bd6224c2U, 0x3cce1da13d90b1afU, 0x3c530a26bd426e5fU,
  0x3dbd6d843da43479U, 0x3d1c2aae3db8749bU, 0x3cf47fd73d3b42c4U, 0xbc8e5176bd8e9441U,
  0xbd7825283c9cfcfbU, 0x3d2969ac3da347f6U, 0xbd4080593dafdf0dU, 0xbd54c3ce3d9758dbU,
  0xbdcf33e4bcf2848fU, 0x3d633601bdd16a2eU, 0xbd41a8ddbd6fa81dU, 0xbcde7f64bdaf527eU,
  0xbcde8e75bda305caU, 0xbd991a9cbd0e733cU, 0x3d81b143bd8dbcc3U, 0xbd52d4a93d2cb1a6U,
  0xbd3a91e4bdc24640U, 0x3d92161dbd96604eU, 0x3dd1f222bc97e19dU, 0x3d34540ebd8a6982U,
  0x3a5da9bebd1526c2U, 0xbd75c401bbacd172U, 0x3d063eccbda9979dU, 0x3d9ea11d3d599da8U,
  0xbdc0a718bd6d9652U, 0xbd8a4bad3cc9c3eaU, 0x3d73a744bd32977eU, 0xbd81ab2f3da597d9U,
  0xbd4fb0443cb6f992U, 0x3c971ed4bdbdb302U, 0xbd9d11c73da21385U, 0xbd96d2c33dc3879bU,
  0x3d1723c3bde269d4U, 0x3dd6fd43bcf09dc5U, 0xbdc55fef3d2147bbU, 0xbcfbdaffbdac6affU,
  0xbcce08703c8e8627U, 0x3c75ade93dd69bdcU, 0xbd9f1524bd678464U, 0xbda6c126be04a5eeU,
  0xbde597d0bd44f6e8U, 0xbd5683173dbb2da3U, 0xbb2b80c23d61b3fcU, 0xbd3ec00d3b8019a8U,
  0xbd2e6ec9bd9f9c1cU, 0xbde3514e3df01237U, 0x3d6d2c9fbd87d2e4U, 0xbbbb34ccbdd0e6c9U,
  0xbd794a5f3b32c463U, 0xbbd216ab3b40fe47U, 0xbcc31f16bcd25b23U, 0x3d1c73f1bbd50e06U,
  0xbde07de23cfb4cc1U, 0x3d3a80b63de6dd4fU, 0xbd3b12a4bd196060U, 0xbcc4dd1f3be79206U,
  0x3c02f3e93d0a28cdU, 0x3dbace96bd804f33U, 0xbce2ffa23ce6fcf7U, 0x3dda329d3cc67acfU,
  0xbdabe32c3dd3b108U, 0xbdf452463db767b2U, 0x3d0a2e0e3ce1b0b8U, 0xbcd88c603d901e17U,
  0xbd8f31c53d7c6dbeU, 0x3d9f0d623d499961U, 0xbd98cf473dba6bd9U, 0x3dd956343c982bd5U,
  0xbdc8790b3d8b6c74U, 0x3ddc90fbbc9cab46U, 0x3c8869783d91b0c3U, 0xbcb10d43bcaa954cU,
  0x3d576a30bd894b8eU, 0xbd3481ba3d9bef8aU, 0x3cdea6683dfa3a8fU, 0xbbf3cd943dd0ef7cU,
  0x3d83a2223d0d6d27U, 0x3d8b56e9bda5df3aU, 0x3d89cb84bd3103f0U, 0xbb8d39ba3b689082U,
  0x3c81af0b3de8e194U, 0x3d19305b3aeb62ecU, 0xbc752445bd99897aU, 0x3cdbf6593e0232f6U,
  0xbc2116233d163119U, 0xba852a403de4c281U, 0x3d3c44d2bdad1bdaU, 0xbd91b0333d54fbbfU,
  0x3dc2c7113d8e5c0eU, 0x3d237f203c9c2d2eU, 0x3d3568c93d81aaebU, 0xbd6d9971bcac8fc3U,
  0xbdeb5acdbd92e52eU, 0xbda5dfd83dcca25aU, 0x3de401e8bd71c32dU, 0x3da047afbd00177fU,
  0xbcf96b653d9ed08bU, 0xbda239993dd3524aU, 0x3d144470bd4ccbecU, 0x3dae32413dea5cb8U,
  0x3d2f5d473c6a63b6U, 0x3c8026063b874f4fU, 0xbdb78cf73d78eff9U, 0xbdc937693d7ac8eeU,
  0x3d536df13dadb1d8U, 0xbd87d6aabd45802bU, 0xbd5e2d2c3c0cab19U, 0xbd110e9b3c754b6bU,
  0xbd8a23343daa03d0U, 0xbb5300a13dd14b7aU, 0x3cbcff333dfd26cfU, 0xbadb6dfe3db94d6bU,
  0x3da833943dc21d1dU, 0xbc5e7f6b3d89eac2U, 0xbc47ee7abd89bb06U, 0x3def19a43d9e4c1bU,
  0x3ddf48fdba96b528U, 0x3c5320dc3d839af2U, 0xbd5fb6ddbdfdd380U, 0x3d18cddf3dda95ffU,
  0xbd81e1a13de98860U, 0xbc83a6323d29cb28U, 0xbd4778043d620888U, 0xbbeb98f3bd823c19U,
  0xbc5b77fc3cf26508U, 0x3dbc5ee2bd1adf7dU, 0xbd1861aa3d5c7aa5U, 0x3cda819b3d83a19fU,
  0xbd4c922f3e0eaae7U, 0x3d454a453c77163eU, 0xbd87df713dbc736dU, 0x3d47f6f43decc2edU,
  0xbd1b2f71bd872cf4U, 0x3d96b16a3dc475cfU, 0x3dca4ef23d5a2364U, 0x3d29b076bdc9192bU,
  0xbd187368bd54c7f3U, 0xbd713238bd5cf320U, 0xbcaaa98b3ce7adf7U, 0x3c54c1fabd00eacdU,
  0xbcf4e133bd4f65e1U, 0x3c053e9b3d2942d4U, 0x3e071489bd5b332cU, 0xbd15d00dbbad78b9U,
  0xbc89ce5fbd25c98aU, 0x3cdff90abca78562U, 0x3d15f5babdb1bd86U, 0x3d55ad42bbe2cba3U,
  0x3d0fe2993d44681cU, 0xbb6a4607bd72e85eU, 0x3cbeb1cbbda1d19eU, 0x3d813b8a3d4f0aa2U,
  0x3dde9eb2bdb0274aU, 0xbc0ff7c23d3b6482U, 0x3dcb54bb3d8ac631U, 0xbdb46aba3ce6860eU,
  0xbd2281013ceda46dU, 0xbd72d11d3d126ba4U, 0x3db4af36bda2006aU, 0xbd8d5cbcbd46ac0cU,
  0xbdf52286bd92699fU, 0x3c8ff7c4bd331d45U, 0xbd9f3b5fbd2c2645U, 0xbdacb573bdab9906U,
  0x3dc915e23d920f99U, 0x3d7e8b4d3d8028a7U, 0x3c7d6ba13ca74af2U, 0xbd8bf325bd7f3bf4U,
  0xbd21bcacbd9d142aU, 0xbbd9bc343d3361e0U, 0x3bc1a91ebb4baac6U, 0xbc37aaecbdb9663bU,
  0xbdb6e145bd873070U, 0xbd3c1758bcba7ac5U, 0xbd3754843d9ba0b5U, 0xbcf0ce873dad3fbfU,
  0x3cd8ff963a82f946U, 0x3d8a16143c8ca1b9U, 0xbda4685c3c5dc9e7U, 0x3cccb80ebd09be87U,
  0xba595c003cab80e8U, 0xbda0fce63d4ca26cU, 0x3d5f8a48bb9a03a0U, 0xbd4502b73c152ca8U,
  0x3d9242e6bd765d56U, 0x3d329e70bd185bf8U, 0xbd507dabbd93b26dU, 0x3d8459723d739468U,
  0xbd248fd5bd52f6ddU, 0x3d2d88f8bd81ff20U, 0x3d22193c3d477348U, 0x3d982244bca89828U,
  0x3c66a028bd9f2d68U, 0x3d3c43f0bd634cadU, 0xbd459dedbd33a7acU, 0x3cca1c003d20c044U,
  0x3d397aecbc208b78U, 0xbd1973c6bcd0bf80U, 0xbd9533c3bda526bbU, 0xbda8ce553da1d82eU,
  0xbd0fb7163d35e3a8U, 0x3d8afcf83dc6e6a4U, 0x3d5f5718bdb55d95U, 0xbdae6c5dbdbb67c6U,
  0xbdab344d3bd37030U, 0x3cdd5c983ce721d0U, 0x3dc22d76bdb93344U, 0xbba95850bd66a89aU,
  0x3cfef5683c0fc330U, 0x3da060963d8f7f4aU, 0xbcd7426cbccdac24U, 0x3d8a8442bd8d7e7eU,
  0xbc4d0620bc8f912cU, 0xbd6dc261bd68b921U, 0xbb414a803cc5dcc8U, 0xbda85d56bc6a4d48U,
  0xbd9e7ab2bd32a632U, 0xbd80a659bcd85f64U, 0x3dcf9d76bdbd0bf3U, 0xbd89ad1c3c80f8acU,
  0x3c943d48bd3ebea1U, 0xbcdb633c3d608560U, 0xbd8d7c64bd926f4cU, 0xbd15ffb63d8e9be6U,
  0x3d7d0d20bb3cae40U, 0x3d38e9003d2fd990U, 0x3d95c4d83d20b6dcU, 0xbd6900513dbf6bbeU,
  0x3d8438543d9914eaU, 0x3d6d32f43d8f97e4U, 0x3d35d8603dbbc7f8U, 0x3d090fc4bd0cb33cU,
  0x3daab1d63d2deeecU, 0x3d878bd8bcef25c8U, 0xbd5500f63bb48170U, 0x3d36e534bc0fb288U,
  0xbdca7010bbb84a00U, 0xbc5fb2b83d2e3dd8U, 0x3d9877103b5ed8a0U, 0xbd8859483d24c4a8U,
  0xbdce9502bd425677U, 0xbd8db0b6bd35f53cU, 0xbd923c86bd78eee6U, 0xbd88361cbd9cda52U,
  0xbccb8198bd0aa3baU, 0xbca8d6acbd2383bdU, 0xbcc07580bd83a5d4U, 0x3dbaad383b59fca0U,
  0x3dca4dccbbf835d0U, 0xbdaaef07bdd08f95U, 0x3da39a563dc1f9b4U, 0x3d079c84bc69ea60U,
  0x3d498bacbcd6b870U, 0x3d6ae480bdcd25d1U, 0x3dc0f0963dcffeceU, 0x3d829eb0bdb991eaU,
  0xbd3b39c1bdac7924U, 0xbbc291f03d7ca808U, 0x3b989290bd30a1a9U, 0x3af706803d590754U,
  0x3d417f3cbd93c8aaU, 0xbdb3dc2f3d898d72U, 0x3db21350bdd00d91U, 0x3d8cbb8cbdc8e3adU,
  0xbd6d49763da2c56eU, 0x3cd61a48bdcbc1c2U, 0xbd8fc38c3d8a47c0U, 0xbd55fb5f3dca95d2U,
  0x3d5283e43cd06d30U, 0x3d9f9bf03d596618U, 0xbdb555d7bdb67a7dU, 0xbd3c791b3da0fc76U,
  0xbdc6e8fabd0298baU, 0xbac4bd80b98f0400U, 0xb9493800bc55b3f0U, 0x3dc0634abdacf81eU,
  0xbc9868ccbbe5da10U, 0x3cc4c448ba8547c0U, 0x3dc283483d5315d8U, 0xbd369b0fbd8405d8U,
  0x3db96860bdbb8048U, 0x3cef23a03d128ef8U, 0xbd7642233d85b23aU, 0xbab579c03d8cfe6eU,
  0x3c1f52583cac3eccU, 0xbd868f96bda60b22U, 0xbd22f25abd418dafU, 0xbc85afc43d8a2ffeU,
  0xbdcb9c093db11396U, 0x3c9d0c243d6ae54cU, 0x3c2a3c80bdbc0987U, 0xbdc75c4bbbff3a50U,
  0xbc272bf83c8ef624U, 0xbd26eba8bd7ffd10U, 0x3d5e9c0c3b714c00U, 0x3d483b68bb574720U,
  0xbd6484533dc55690U, 0xbcc6e2f03b846940U, 0x3d084e343d8fca6cU, 0xbda68e07bdcf38a7U,
  0xbcedf778bc6c0aa8U, 0x3d48d558bd9c9966U, 0xbd9a03e8bd22a4c3U, 0xbc5d0ca0bd8de007U,
  0x3d515bacbc49f6b8U, 0x3dac888cbdafb4fdU, 0xbd96de443d349d34U, 0xbd4132643d05d644U,
  0xbc86bef03dc12a7aU, 0xbdc83a86bd28d41aU, 0x3c440718bbfcfbe0U, 0xbd91fa523cf53c20U,
  0x3d805accbd2be642U, 0xbd7033dd3d7798b0U, 0xbc90d36c3d1fae90U, 0xbd090c18bd804e3bU,
  0x3d86d7aabd34eccaU, 0xbdb9426fbd9353e1U, 0xbd95a6c0bdaaa0e9U, 0xbd439af23cb078c0U,
  0xbdc8c1aabbbe4310U, 0x3d3062d83db0a080U, 0x3cc6dfb83ae6d100U, 0xbd0e4bde3d9e8b72U,
  0xbd8e2e3abd1334c5U, 0xbbccc1863c87ac72U, 0x3d98e9c43d2888e0U, 0x3d829e5f3d9f60bcU,
  0xbde5beb3bd574954U, 0xbd064e41bcac375dU, 0x3c63d5b73c8cd6ecU, 0xbd570587bdd1e4f2U,
  0x3c5699963d183d5eU, 0x3cdf045fbd83a339U, 0x3daf571bbc522005U, 0xbc859be63c7f9e9eU,
  0x3b12f77a3d413fd8U, 0x3ae707f7bd9125e0U, 0x3bd97a80bc3fe5c4U, 0x3d3e3c143d18bd5aU,
  0x3a5a92793d9948e5U, 0xbdb3fefabc704f5fU, 0xbd4169273d988b22U, 0x3dcb6ad7bcbe158bU,
  0x3d9c2762bc209722U, 0x3d4133c23c802d1eU, 0x3c244b06bdbdf6e5U, 0xbc0da8a83d540158U,
  0xbda557e53ba10ca0U, 0x3daadaba3cfa5b68U, 0xbd78d28abc224092U, 0xbcf5c0c83d777dd2U,
  0x3dd6ad4d3dc3d743U, 0xbd7ff4bf3bf85241U, 0xbdd79b56bca2b897U, 0xbc91d527bd8335a8U,
  0xbdacb9f23d4679c7U, 0x3cd54561bcfd175bU, 0xbdbbef55bc5a4cc9U, 0x3de61c1d3dd7cb9bU,
  0xbcc7d0ca3c2df2f8U, 0xbc8ec7d73d90d435U, 0x3dcdf87c3c81136aU, 0xbd97feca3ddfbba9U,
  0x3d75532cbcbc5909U, 0x3cc01f263bab18deU, 0xbcec99f0bd25ccffU, 0xbd860e86bd84ed58U,
  0x3bbcfe76bd805cd9U, 0xbcd2796f3dc8bc23U, 0xbda883b33da93295U, 0x3c322d0c3ca4f9f1U,
  0xbc057812bd428477U, 0xbc3c65d93d956ba6U, 0x3daf728a3df3d97dU, 0x3df0a5a0bd98c59dU,
  0x3db305c93c94ca0bU, 0x3d09e72bbd92a5c1U, 0x3d1e389bbdacbee5U, 0x3d3d5f51bd602a0bU,
  0xbcf3c553bc9d2ab9U, 0xbc9ab6123db8f528U, 0xbd896a48bdc8e1e9U, 0xbc266e8f3da6d5b2U,
  0xbd8561693c71b208U, 0x3c63e9a23d145d29U, 0xbd707093bcb3d43dU, 0xbd8451273b654700U,
  0xbd3939153c360ce9U, 0x3d8a1f853dc652c7U, 0xbd5c79bf3c41117dU, 0x3cf3f12d3ba89766U,
  0x3d49762fbd7d1a60U, 0xbd3136b33daba963U, 0x3d24b03cbdc04833U, 0xbdbc2c3dbd9bf2d2U,
  0x3de5b862bdcb0e6dU, 0x3dc267493dcab74eU, 0xbc657f17bd8cdad2U, 0x3d152bd23dcf2656U,
  0x3aab95b23dc146e2U, 0x3d1f45ca3c9cf1a2U, 0xbdc27f313c8ed86cU, 0xbc093125bd088656U,
  0xbda026043d57760aU, 0x3d100a503cce067eU, 0x3ca2b2093d3df709U, 0x3de80380bd00d2a2U,
  0x3d3d99ec3db33952U, 0x3d9dadb73ccea8dfU, 0x3c5a0ad83d597cf1U, 0xbda0975d3c8eb506U,
  0x3d8f0618bd8fa439U, 0xbd6052bebd7885b7U, 0x3d39503f3d253b2bU, 0xbb5acaa6bcc6bdf6U,
  0x3d7bfcf0bcc6ea33U, 0xbd9f7ad63da954dbU, 0x3d989cbc3d4c74e4U, 0xbda64b633cabab15U,
  0x3d520748bcb80ec9U, 0x3cc26af63c06cd44U, 0xbdd2663e3d53f11fU, 0xbd5cf210bc64e77dU,
  0x3db1e82dbd251023U, 0x3cae9de53d2b5c3aU, 0x3c861934bd35b6abU, 0xbd9d77493d216e2dU,
  0x3d9f1211bdca0c52U, 0x3d824d693b3844dfU, 0xbcbb9d733cae6d65U, 0x3d7bd8843db32da4U,
  0xbb5e9a833d42b438U, 0xbd808110bcceb864U, 0xbd0de7df3d4083a9U, 0x3dcc64cebd8bc0d8U,
  0xbd7776d53db5b7c3U, 0x3d51789f3d96c0fdU, 0xbd9f7c143db79cb6U, 0x3d2e8df53dad698eU,
  0x3d82c97bbc2dcbe8U, 0xbdaef038bcef5536U, 0x3c9007fa3d846ab0U, 0x3b90d7833cff7342U,
  0xbd447a053d4fd583U, 0x3da5b6603d6d5696U, 0x3c77446ebd2f4e96U, 0xbda4bdb43d59c43aU,
  0xbd3f4b6c3da74a2cU, 0x3d18a94abd9af6e4U, 0x3ccbc0ebbc7cbaf5U, 0x3d02a4d5bd2f7534U,
  0x3cc555ddbdefa184U, 0xbd74f1ab3dc5da1fU, 0x3b259bba3d6ea671U, 0x3ca4bc01bcb366f5U,
  0x3db6ff293daef4e0U, 0x3c89147e3d787c57U, 0xbc5b639cbceeabc0U, 0xbd82f9993db15ef8U,
  0xbddb7319bd88cec9U, 0xbcf0815fbc62ba73U, 0x3cf35638bd9499b7U, 0xbda55670bdd04d95U,
  0x3c1e3c8abd281aabU, 0xbcb357fb3d71ee51U, 0xbde5f05bbb87a446U, 0x3be013223d9715e3U,
  0x3cae137bbd75c36aU, 0x3d3c4b6e3dd5a1d9U, 0x3dc1d723bdd82f81U, 0xbdfadc48bdd1de31U,
  0x3d8ee5653a9ad2c0U, 0x3b4ce8013db0895aU, 0xbd8dbf0bbd9d07a6U, 0x3d223b0cbddcf862U,
  0xbdf1ae383cc3208eU, 0x3d9c71903d91fadcU, 0x3daad3973d99acddU, 0xbcf6835f3dbff0d6U,
  0xbd36d30cbc560fc1U, 0x3da41bcb3c20e8ffU, 0xbcf0d73fbcbab16fU, 0xbd1e21a0bda1d193U,
  0x3b83c8d5bd32ca44U, 0x3d7ce2c8bcb81051U, 0x3d6de9033da11e81U, 0x3cb53f1abd1322afU,
  0x3db5f2f9bdbebc2aU, 0x3d96701bbd8ea8f8U, 0xbd8f1c3cbb16bb7cU, 0x3b932ccbbdb5f9cfU,
  0xbdbf1c05bd85d976U, 0xbb805d05bd671e1dU, 0xbd2264e53d565b8dU, 0xbc4a006b3d5e1ceeU,
  0xbdade7c2bd30c34cU, 0xbce01c043c5c3120U, 0x3da4a36dbca0ae2cU, 0xbcaec0a53dee13daU,
  0xbd5eae75bc59ede5U, 0x3d9e01b63db5d107U, 0xbcb3ac62bdd5d167U, 0xbc52e93abcb22c46U,
  0x3d8666ab3c17d052U, 0x3dad986c3d43d184U, 0xbdd25bb63d0c891aU, 0x3d9b010cbcbb05f1U,
  0xbcb0f487bccb5604U, 0xbd790e103d41e53aU, 0x3d59a310bb3d6f63U, 0xbc0041e2bda356b6U,
  0xbceef6e23d526aa8U, 0xbda90ad2bda1f769U, 0xbddc3e203def6b9cU, 0x3d64b698bc9dcd60U,
  0x3aa9a478ba684266U, 0xbc07af323c99f68aU, 0x3cbe1040bc3c26d3U, 0xbdb184923d88db80U,
  0x3d1be5b83d04da1aU, 0x3d90bd7f3d29de80U, 0x3d963a0d3d476766U, 0xbdabf4f8bda3420aU,
  0xbde69a413d642034U, 0xbd3a5942bc6becf4U, 0xbd92dfd63d2d8afdU, 0xbcfa4852bb838499U,
  0x3bbb2e153d6f6d3eU, 0xbdd84e813daf8b20U, 0x3d9b646dbd912155U, 0xbd8c5ad6bc42f67fU,
  0x3d9aa148bd82a327U, 0x3c7aecfb3da096e0U, 0x3dad417239a2cfeaU, 0xbd359e66bc885b7cU,
  0xbd9018373d774e28U, 0x3d321671bc969ceeU, 0xbd6950303b36e936U, 0x3d892d83bbf8088aU,
  0x3d89f80dbd7734b1U, 0xbdd201303cc826f3U, 0xbd88bde03c635d8aU, 0xbdc501e5bd94dfc8U,
  0x3ce008fb3d819586U, 0x3c5daa7abd994e1eU, 0xbde3874a3c3011fcU, 0x3c9fe20a3b184a71U,
  0xbd84b63f3cf0377cU, 0x3d4085293cdd984fU, 0x3d5fd2ea3be9cbc2U, 0x3d52cce83d3ec1fdU,
  0x3d0b07bebce6aca5U, 0xbd11044bbceba892U, 0xbc4200633dbc3acaU, 0xbcce88bd3d692c4eU,
  0x3c25dff5bbdad76dU, 0x3dbe47e63d2a1cb4U, 0xbdb4a3f53da0b8cdU, 0x3da05da63dcdbcb1U,
  0x3cc710cd3d396febU, 0x3dbbfcdc3d8192a7U, 0xbd8aaf763d525668U, 0x3d20f5743d803d60U,
  0x3cd3e49cbdb9941eU, 0xbd89daf5bd1f6103U, 0x3c8da5c1bd616e4cU, 0x39873adebdb39529U,
  0xbd8c22b83db661c0U, 0x3db321eb3d50eddeU, 0xbc2453aebd91d0b0U, 0x3d757865bdb8c447U,
  0xbda2da103cc63b99U, 0xbd33e8dd3d95dcb2U, 0x3bc8d195bdbacc41U, 0xbd8d793e3de224eaU,
  0x3dca874bbdfdc8b2U, 0xbda5312dbda03364U, 0xbddf7ff73d3ed353U, 0x3d24d44ebd317d7fU,
  0xbcf5a4d7bd2e2641U, 0x3ca3d1503db20c54U, 0x3dc201e73d719676U, 0x3b1cf825be01e59cU,
  0xbd167878bd6058beU, 0xbd9395513dca44dbU, 0x3d3976803cf4cc52U, 0xbcc4b6b1b9b4f24cU,
  0xbc6b6bb4bd02f37aU, 0x3c0edb7c3c74a8ebU, 0x3d928947bd40498dU, 0xbd89d7723d870945U,
  0x3c3a1f9cbcf344e6U, 0x3c5419df3d9642faU, 0xbd4eb1d2bd2c07ceU, 0x3d9b1cafbd48f533U,
  0x3d862c1ebd028523U, 0x3d4ac487bd0da242U, 0xbd4bf031bd72eb40U, 0xbdcacfd1bd880f5dU,
  0xbd2125ba3b7a03c6U, 0x3cda4867bc987bbeU, 0xbd26a501bd34cd10U, 0x3d05edbabd81cf22U,
  0x3da08506bd2ac54fU, 0x3d276870bd27b045U, 0xbda224fb3d8c018dU, 0xbc9e3ca9bcf3952cU,
  0xbdb4abb4bdb8a2e2U, 0x3d3e25173bd1f3b2U, 0xbdb3f4ebbdbce0edU, 0x3c07d6073da3ee8bU,
  0x3d72b1f03dbbe5c0U, 0x3dda90c03b7f8717U, 0x3c8db4ffbd0b1b12U, 0x3bc7e0dfbd87f07fU,
  0x3d77a5033d0b7767U, 0x3d9b9f0ebcfc1e13U, 0xbcf2d7053cc03327U, 0xbce8b5043de63597U,
  0xbd980a3ebc9e62fcU, 0xbdcc2ab43d58918fU, 0xbc3cd1d33cc29342U, 0xbd9b22753d3b908aU,
  0x3d5e7280bd9fc46bU, 0x3da1bc4abccaabb3U, 0x3cb6ec6d3c9dc5d7U, 0x3d05ace8bd1df258U,
  0xbc005070bdb23aedU, 0xbd8d7ddc3cc661b7U, 0xbc7de860bd8afabaU, 0xbdc090df3a06f96aU,
  0x3d753019bd28d917U, 0xbdb5a0583dac2285U, 0x3df68a2b3dea93c5U, 0xbc2bd8cdbd447c07U,
  0xbdad2a68bcc481abU, 0xbd19110abd59bf61U, 0xbd9cb85abc9f596fU, 0x3d4e8df7bd742279U,
  0x3caca7fd3dcddb8aU, 0xbd6b3d7a3c939897U, 0xbd11afaabd33761fU, 0x3dcd5ab4bda4419dU,
  0x3da69795bd01c62cU, 0xbd6e7e0a3bd49608U, 0xbd878074bdcca49bU, 0x3ccaac3abd777237U,
  0xbd935a1f3bb8e0b1U, 0x3c7f2d463dc7425cU, 0x3df3b4e3bca421a4U, 0x3dad6e34bbd283baU,
  0xbb9b4b1cbd5cb929U, 0xbb805d7dbcfa8331U, 0xbde1992c3dbe30e2U, 0x3d96f551bd2262b9U,
  0x3d1f2395bb0dea7eU, 0x3dd936023d93fbffU, 0xbd916b39bab6e6beU, 0xbd37786b3ca71d9dU,
  0x3d7a65243d836693U, 0xbd2227343c713466U, 0xbdc3c9d7bc416423U, 0x3d23fe5b3c446cc8U,
  0x3dc6c176bd441ec0U, 0xbdb3ae67bdb8d8d7U, 0x3d198fe6bd14a0acU, 0x3cca2e463c0c6e79U,
  0xbd86c4d8bcfd6bccU, 0x3dc3f18fbda74a8cU, 0x3c42382ebbf3a246U, 0x3d8dc9593ce753edU,
  0xbd7e8fe53d05afe3U, 0x3de8eb183d7c8cbfU, 0xba32d5f43da7f76eU, 0xbd97127b3d86b8f6U,
  0x3dc886f23d4abc79U, 0xbdaafdd83da4d763U, 0xbda2530f3d44d64dU, 0xbd8da7d63cb37b68U,
  0x3da2a4e63dbc64f0U, 0xbcb60e4b3daf9287U, 0xbc8cfb9b3b9121c6U, 0x3ca16ae13c744e8fU,
  0x3da180b0bcbf6bf6U, 0x3b7acb293da15592U, 0xbc829303bba4c46dU, 0xbda8b8b4bd6ee519U,
  0xbc92a4383dba182fU, 0x3dc3ec053dbff3b4U, 0x3d2c5d81bd4fdc88U, 0x3caaa60dbdb73fb2U,
  0x3d12909bbac43520U, 0x3c06b78dbd116de8U, 0xbdb2d3703ce1253eU, 0x3b3c0f763d6ccabcU,
  0x3d8deb703c0a4ff0U, 0xbd61c8c5bc1035f4U, 0x3d077c583d808092U, 0x3d9e0a1c3cf162c1U,
  0xbcdc932a3dc9c084U, 0xbd4cf3fe3d9dc8afU, 0x3cd624803cd91d44U, 0x3dcb105d3db93f60U,
  0xbd70cb56bd97a3e2U, 0x3dc07eaabce6b09eU, 0x3d0c701bbaefcadcU, 0xbcf115ecbd4c7191U,
  0x3d0448f4bd7d3028U, 0xbd8b5d58bcbe3132U, 0xbd4e6b65bdb2b5aeU, 0xbdb740a0bcec7010U,
  0x3d00959ebcde6ff1U, 0xbc8cd6f2bdade6c4U, 0x3d937e473c8e6c43U, 0xbd17bf573d03f97cU,
  0x3dbf7b17bd392e7aU, 0x3d6f114a3c17b49dU, 0x3d98a8683dd7ea67U, 0x3d1fe010bd6bf88dU,
  0x3c6e6a8fbd41a2adU, 0xbd1513f03dc1281eU, 0x3d6a580abddd19aaU, 0x3d2cbb77bcbabbfeU,
  0xbd7fe747bbcc2584U, 0xbd4ec6c23db61c9bU, 0xbdbb6b303cb3486cU, 0xbcc64bd73dd5809fU,
  0xbdbb25dc3d9d90afU, 0x3b9dcc2bbd80f314U, 0x3d8d5eec3cfee5bdU, 0x3988b1fabdb14d93U,
  0xbda6b6733c9c6e44U, 0x3cf8f248bc92d468U, 0xbd1deb473d8fa59aU, 0x3d79d86e3d212315U,
  0x3c2e07703c843e79U, 0x3caaac50bd505fbaU, 0x3db00bf5bda9afa7U, 0x3db74172bc2db529U,
  0x3cd95161bd98d3a8U, 0xbddfe3fd3b38bd19U, 0x3d9d91903d94fbcfU, 0xbcc3b49e3ded7871U,
  0xbd6f3bc33d928217U, 0xbde1c425bd914e59U, 0x3dbb811abc98459bU, 0xbd4683013d59d0b2U,
  0x3d9311fbbd6197ecU, 0x3c1de6983c279982U, 0x3d80f5afbd840837U, 0xbc248126bc854dc3U,
  0xbd87cdca3d9c7186U, 0x3d332550bb82f568U, 0x3dd401df3cfdca3bU, 0xbd927f2ebd0d9e53U,
  0xbc36e744bd863b33U, 0xbd4fca4e3d5d271eU, 0xbdb76687bbd05dfdU, 0x3cd0e7b4bd3884b6U,
  0x3d0589f3bd0249fdU, 0xbd420850bb771794U, 0xbdb67c513dd07d94U, 0x3d418a273d995a58U,
  0x3ca45f97bc8914b7U, 0xbcc4451dbd99ff09U, 0xbd93d92a3de4ee6aU, 0xbd30329e3de77c8cU,
  0x3db23205bd121a07U, 0xbc9043a53dcda344U, 0xbd4c70753d63a81aU, 0x3c95664b3dcfce83U,
  0xbdddad6f3da2412cU, 0xbce878efbdc0f0a1U, 0x3d9a4b403d9d1e46U, 0xbd82c0983db5f036U,
  0x3d47359cbde74c61U, 0x3da063ff3d33fdd4U, 0xbc5575263d2ffcf6U, 0xbb4b9ef63de96f56U,
  0xbd72d1fcbdc41486U, 0x3d755bc33d445615U, 0x3d37a75dbdae7cafU, 0xbdc8f48d3da1008aU,
  0x3ccef8343d9d3876U, 0x3d6b20b63cf88181U, 0x3d9b3b65bc929a96U, 0x3c508963bcdc2e30U,
  0xbd3428433c0ddc27U, 0xbd1b93883c7e53ebU, 0x3dab09123d2bb12fU, 0x3cab5f723bc4c9aaU,
  0x3d6674ec3dc5455bU, 0xbdbbda46bda74f55U, 0xbd1e7a1dbd0e8df1U, 0x3d8c6cbf3d6e2e6eU,
  0x3b1cea783dc81976U, 0xbda0ccd93d8446a8U, 0x3da5196bbdd740bcU, 0xbdcf25babd933ab7U,
  0xbc3b05bfbd831ea1U, 0x3c936eb1bde28868U, 0xbd38da3d3cc6981fU, 0x3d25c844bd97c357U,
  0x3cb6c46f3d978bd1U, 0xbc9247103ced9b52U, 0x3da3634dbdb47c25U, 0xbcc9e4033d95a85bU,
  0xbcd0f2b53b76bfe6U, 0x3d27cdb53dd876d7U, 0xbd8bca32bc890e3eU, 0x3db38a813daf5a43U,
  0xbd4cfac73cc0e253U, 0xbd9662debc88e6b3U, 0xbdd594163db1e91fU, 0x3dae3ce73da3afabU,
  0xbda461103d313599U, 0x3d9dcf94bd8b40c8U, 0x3db191a3bcefa280U, 0xbc69f8d6bc64ebabU,
  0xbbcbd3e83d231afeU, 0xbcbf7444bdb853fbU, 0xbba8475e3d6a9cedU, 0x3dc0d3293c8a9a86U,
  0x3dac7342bde0ad17U, 0x3d2b05e4bd9763faU, 0x3d0f73153d7edcb4U, 0x3d7044533d9fde50U,
  0x3da771cb3dcedaa2U, 0xbc78d8683db35025U, 0xbd1804a63c946a13U, 0x3d684dc13a8dffb3U,
  0xbcf0e2a33db5b678U, 0xbda50b0cbd542374U, 0xbcdf07afbd88f73eU, 0x3d80f5cabda5ae72U,
  0xbd3cf3553dd99c88U, 0x3d8614013d5a86bcU, 0xbdae7083bdc267c1U, 0x3de6527b3c826c54U,
  0xbd027b03bc8f544fU, 0x3d9ecc723d5d1f8eU, 0x3c944ba03da028b5U, 0xbd83f1303c8e06f3U,
  0xbd8a73a2bd7c5f05U, 0xbcd6d54f3ad70a93U, 0xbc25de81bd9dd336U, 0x3d10a7343d61fda4U,
  0x3d4e1e03bdaace52U, 0x3da1fec7bd718f93U, 0x3c44c594bdb257c3U, 0xbdbcffcabdc44e83U,
  0xbd00f2433bf28c11U, 0xbce70fd4bd24ddc1U, 0x3d4168e8bc9ba0d2U, 0xbb6b73683ccf2bfdU,
  0x3b21db8d3c29ba29U, 0x3d20ad493d7c4055U, 0x3c37c1c9bcf39981U, 0xbdb09951bcc5e0f7U,
  0xbdb164353d13a669U, 0xbcb06fb3bd890911U, 0xbd74586e3db22e8eU, 0x3d0f34e7bd925ab8U,
  0xbd9b27fdbb1bc6dbU, 0xbcd94c773cc37efaU, 0x3d8b1b9b3dcf12bfU, 0xbdbc7a8bbd98fbc9U,
  0x3db4cddd3d6079f6U, 0x3bdc8403bd2fd6bbU, 0x3d152c1cbda00218U, 0x3d5bee553ca62d58U,
  0xbd8ec7083d2f0113U, 0xbd9b855b3da415c7U, 0x3d6657963d567836U, 0x3c4f5b753c2d8872U,
  0xbd8d3e33bda5d6b5U, 0x3db59913bc8db98cU, 0xbd9daa23bd71ca7cU, 0x3dcd76bbbdda2718U,
  0x3d8336383d7b7ef2U, 0x3d4181cd3db5905bU, 0x3d3b1863bc4cf4bbU, 0x3d4238953d306d04U,
  0x3cf573c0bcf610c5U, 0x3d8311a7bc4542c7U, 0x3dc0c4a6bccee585U, 0x3d879ad03d37e678U,
  0x3d5095dd3b4dd2b2U, 0xbc4f7dd2bd8a86b2U, 0xbd460df9bdbc0b37U, 0xbd90e339bdbb1221U,
  0xbc9de48f3db393abU, 0xbd2160ab3de2cc01U, 0xbd74361cbce1a143U, 0x3d0c79b63d7be998U,
  0xbce3918e3cddfabbU, 0x3d78c2e63db8f294U, 0xbd0b81f2bdbcbb09U, 0x3d652e973db5fa3aU,
  0x3c3d7ccc3dbac0ceU, 0xbda50149bd16bc7aU, 0xbda89aaf3c033429U, 0xbdaf28683d6b0dd1U,
  0xbcfada44bdaf52e3U, 0xbdeec8afbdb964f2U, 0x3dc2a464bd16b7daU, 0xbdfb1201bd76d84cU,
  0x3cd99dc53d386d6dU, 0x3d49543a3dce2fbaU, 0xbd446d9dbda50c4bU, 0xbdd280b3bcfb9fe6U,
  0xbd64f0ec3d950a89U, 0x3d35f37f3dbddadbU, 0x3cad2b7fbd78c9d0U, 0xbda4caef3c241d70U,
  0x3dc042b63d9daa45U, 0xbd0abd5c3dc96656U, 0x3d27d750bd54d57bU, 0xbdbb2a6e3d7fc88cU,
  0xbc36c015bdab5618U, 0xbcee6fbfbd97df27U, 0x3dcad341bdcee32cU, 0xbd95799ebd0d78d2U,
  0xbded8b66bc280bf6U, 0xbdc0d615bc3769ecU, 0xbc5354c13a3f90f8U, 0xbcd861943d32c7c9U,
  0xbd9c00a4bd8cd88fU, 0x3d2528d8bd4ddb81U, 0xbcf89f5ebca9be50U, 0xbd0d21863dd0fc6dU,
  0xbcc2cd3f3db5c6aeU, 0x3d578bca3dccf973U, 0xbdb7a0f03dc474c4U, 0xbd91fa18bdfd39f3U,
  0x3da4c2343d3b702eU, 0x3db527f73d1f558aU, 0x3d8c58b5bdcb8d53U, 0x3da94ef93cf6f5d0U,
  0x3d69a7f63dc7c072U, 0x3d38a2cb3cf0e9abU, 0x3d006d0b3d8979d3U, 0x3dd893a9bd13db26U,
  0xbc50cfef3dcb491eU, 0x3c361b57bd8da9e8U, 0x3d23c56abd73a90bU, 0x3de4c0e7bd3da32aU,
  0xbceb44203d917ea5U, 0x3dc7b9ff3d647987U, 0xbdd5c3b6bcfb092aU, 0xbd4659003e060ae7U,
  0xbd2afb103d9fc05fU, 0xbde5886fbde7ab50U, 0x3d446fda3ccebd60U, 0xbbb3f3e6bd697328U,
  0xbbb933eabd14d1e2U, 0x3d7dc3523d10ff8eU, 0xbd87e35bbd13b739U, 0xbc3dfb8bbd40ca90U,
  0xbd3a693c3d26e304U, 0x3dbdebaebcf657beU, 0xbd8c382a3d9a9a98U, 0xbda2e84cbda062bcU,
  0xbc818dddbcca75b8U, 0xbd14829ebc957066U, 0xbd89495d3ce6e530U, 0x3db11906bd2f869bU,
  0x3d1d45a33d1dc475U, 0x3d3efbfe3dcc4c74U, 0x3e08b4b7bd91ed8eU, 0x3db02e363b1c5e28U,
  0x3d5664d73d498d15U, 0xbc3b30d8bd76b9beU, 0x3dc35db43ccb2332U, 0xbc9fdb273d64d499U,
  0xbcba32643d1637cdU, 0xbdb6d233bc85c0daU, 0xbdab9994bd8897c6U, 0xbd8ded5d3d86f085U,
  0xbd3f24d33dd6a26cU, 0x3dab27b2bcb5df17U, 0x3d914a02bd5464b7U, 0x3dcdcd7cbd9c49e2U,
  0x3ca049bd3dd635bcU, 0xbcce318d3ca37105U, 0xbd7935103d303880U, 0xbc82f42cbd85b7bbU,
  0x3d2382d23b755d62U, 0x3baef8d23d76210dU, 0xbbad78693da4bee1U, 0x3c82c93fbdb05e6fU,
  0xbd3f14493da9d4f9U, 0xbc32e21abd375af8U, 0x3d90ee37bd5a948eU, 0xbd6b43e43d36c334U,
  0xbd38d1f4bc9d4a12U, 0xbc50bab23d0349beU, 0xbd4ee36fbd3b022aU, 0x3dca0947bcfac356U,
  0xbdf568da3d93636cU, 0xbd8c77acbc1205d5U, 0x3d39bd813d9ccad8U, 0x3dd1a5183c9b8a44U,
  0xbda3b80c3dd6f885U, 0x3cae6cc439a3bf8aU, 0xbd826b973daf33b8U, 0xbd18cfa13b36d685U,
  0x3dda36debd60eb1fU, 0x3d039644bdc21fdfU, 0x3c4dd1073d05d17fU, 0xbc114bc3bd8a17d2U,
  0xbc07782bbcd1ba06U, 0xbda325adbd94b1a5U, 0x3da13610bd0ae294U, 0x3dcb61cd3dfc8df1U,
  0xbc8f4c65bd328e10U, 0xbd927ccd3dda9120U, 0xbd777e9a3ac83e76U, 0xbb6f625d3dbb09c5U,
  0x3dc20d2c3d4ef123U, 0xbcb8aec33cac0486U, 0x3dad02cd3d6fe446U, 0xbc2a256abcd418a3U,
  0x3e053b8d3b8bc6c8U, 0x3d1cb5af3d1b2917U, 0xbd2035253d810a00U, 0xbd65aa923d9dded4U,
  0x3c2df45f3dcc66d0U, 0xbd783954bd37d771U, 0x3cc14f3a3c70f5ebU, 0xbd04ef10bd8b49daU,
  0x3d0a60d23d1c942fU, 0xbd7decc5bc2b84daU, 0xbe0513023dd3acf0U, 0x3dd4114cbdb8cef5U,
  0x3d4df4323d8185aaU, 0xba00ae70bdd46bdeU, 0xbdbd9598bd8601b9U, 0xbdc2fa28bc8f34b3U,
  0xbd77c9a2bdc0d21aU, 0xbcd972af3d728f02U, 0x3ceb8a1dbd41c56cU, 0x3dcfa9ee3c33e097U,
  0x3bdc93863d08314fU, 0x3cd5be84bd17d6fbU, 0x3dc7c76cbd7a87b4U, 0xbc8900b33d9d4f82U,
  0x3d439fd4bc7566f4U, 0x3bc3bcc9bc6a3c26U, 0x3ac7e3aebc0ba5ebU, 0xbd6b80cd3d933fa2U,
  0x3d343bf2bdbbae35U, 0x3d9d55903cc6d103U, 0xbdb327573ca21524U, 0xbacfaa3c3da9ca4dU,
  0x3daef6fa3cca4566U, 0xbce866dcbd041227U, 0xbd848887bdd14bbfU, 0xbba19b273d66e36bU,
  0x3dd8f519bc811107U, 0x3dce16b23d498baaU, 0xbd7e5df03ca1cd34U, 0xbde7e732bdb00959U,
  0x3d8e8b35bda62592U, 0x3df2282f3db10860U, 0x3d9d7c0239bb7176U, 0x3b95749b3da8bd86U,
  0x3d85baec3dc2f47dU, 0x3c88fdc03c5c3d90U, 0x3de5aab83d8faf0dU, 0x3d2aec7a3c90729aU,
  0x3d94027e3b8408a0U, 0x3d86c9d4bcb89e20U, 0x3da1a8303d2240b0U, 0xbbc199f9bd93b5f3U,
  0xbdbceb283d9c9c13U, 0x3cf8d5643d1f010cU, 0x3d19bc49bd03fd9dU, 0x3d19ba3fbd8fa39bU,
  0xbd9523af3d230a93U, 0x3d690f513c4b31caU, 0x3dbe020c3d9683e5U, 0x3d541c16bd7e43d4U,
  0xbdacff7a3e02dc52U, 0x3d3563d33da37dfdU, 0x3d4e33873d6f1061U, 0x3c94b9c8bbe12a45U,
  0x3d7deb393dd14d61U, 0xbb36330ebdb81c84U, 0xbbf575bf3d6016deU, 0xbcb126263d90eb88U,
  0xbdc0e5c03d6c3d14U, 0x3cf3759cbd75bad0U, 0xbdac6dd93d1207caU, 0xbd53b5f53d7b81afU,
  0xbdb006f7bde0d5a5U, 0x3d804551bc90602fU, 0x3d970c9fbce9ee5eU, 0x3d0d2da9bd7e3c32U,
  0x3da8d70ebd4b9d76U, 0xbd66788f3b9bf696U, 0x3b802f82bcbbe619U, 0x3bffe7bdbd9cc0ffU,
  0x3d92273cbda4329dU, 0xbd74fe1fbc35f566U, 0x3d2d11b4bd576912U, 0xbce32159bcca3a51U,
  0xbd5646ca3d8d2687U, 0xbd5b094d3dc7ac1eU, 0xbc99e6e23cdc391bU, 0xbdda9ebebddd2a9bU,
  0x3d56de213d08db79U, 0x3d8e2291bd96803eU, 0x3d87792d3d3512f5U, 0xbd7423743d05314dU,
  0x3ced465e3d927d57U, 0xbd0fbfe63dd16975U, 0xbcd771d33dbdb322U, 0xbcc3c49b3cc60cdfU,
  0x3c88064dbde3fea9U, 0xbdc6345ebd3311f7U, 0xbda405343d7d639fU, 0xbd53405bbd993593U,
  0x3cd616d73d9fe470U, 0x3bdadea93c56bf5eU, 0xba36a883bd1bfe64U, 0x3d37850e3d2deb36U,
  0xba0bb2b9bd84e1f0U, 0x3df6fe3d3d2b0cc5U, 0xbcab9af53d2ddb59U, 0x3dbf03a5bd7df074U,
  0x3d0735873dd020d6U, 0xbcdd55cb3d297b42U, 0x3dbb53613dfe4fb1U, 0xbd391ad73d8a978dU,
  0x3da8b43b3e09d13fU, 0xbc90dd65bc9d1e48U, 0xbda17cd43dfedef1U, 0x3d4d617d3dc528f1U,
  0xbd0ff2b03d8df9f5U, 0xbdac95213cfe0e8aU, 0xbd1a8dc1bdbe7587U, 0xbd0516fcbb7b50c7U,
  0xbd46d874bd917e68U, 0xbc297eabbd523f57U, 0x3d5771d53dc80b08U, 0x3d2f2e503d7226acU,
  0x3dbb43c43cd863ddU, 0xbd83338e3c709131U, 0x3c914b0e3d62a7b1U, 0xbd4c8d9ebd0d1a1cU,
  0x3cb1b9e23bfb5b5eU, 0xbd8dc1b73da87814U, 0xbca846a63d961ae6U, 0x3d4feb4b3d5fb52fU,
  0xbdc41c9e3dc5a2acU, 0xbd15ee373d69ded0U, 0xbc7d4b683cc63738U, 0x3d92c334bc538874U,
  0x3bef54f83d49d038U, 0x3da8ad70bd9174f3U, 0x3cdadd343d9410cfU, 0x3d0be716bdcbb74fU,
  0xbd9c85a93d108c34U, 0x3dd838393c29b337U, 0xbd856b03bc5d3ef0U, 0xbd4feb813db6b1d6U,
  0x3b73b8fe3d8683d2U, 0xbd4a4e05bd932a25U, 0xbd633fd0bc9547b4U, 0xbd995fa73daeefbaU,
  0x3cbe52183d5093a8U, 0x3c81e2bebc5d46b1U, 0x3db4710fbdd1fd3aU, 0xbd8bdc433d8d4158U,
  0x3da57770bdb564a2U, 0xba8b8d7b3d5390b8U, 0xbdee26223ccaa8b7U, 0xbd967d6dbbc36479U,
  0x3d4d16b53db76c52U, 0x3d2f4e80bb90f9a5U, 0xbc20e4b3bd9b201dU, 0xbdb22cda3c6fb275U,
  0x3d39ed0a3de4443eU, 0x3badd90f3ca4a87cU, 0xbd885828bd802e12U, 0xbdbbc073bd1d0384U,
  0xbd45183cbdc8490aU, 0x3d19c0473cff0c3fU, 0xbd49ee013d50cec8U, 0xb9cab360bcf106a3U,
  0x3dba5dc23d2651ebU, 0x3daf21a5bca92781U, 0x3d898aa13d9e4f5fU, 0x3d80871bbd6f9a0fU,
  0xba1359663cba264dU, 0x3d5c56b33d40c895U, 0x3d2e21afbc6f5368U, 0xbd7414c3bd73fadbU,
  0x3c564356bdedd76bU, 0xbd3213c2bd08ba19U, 0x3ddd58bb3dd4a9feU, 0x3d497d5b3ca033a8U,
  0x3dc5b98dbc27b04fU, 0x3d9a2780bd357b6bU, 0x3d01281b3d0e477aU, 0x3ce50db4bb5151a4U,
  0xbaafbe563d9d98e7U, 0x3d914d5c3dd9038eU, 0xbd119af83dcfbf3aU, 0x3d99833db96b7987U,
  0x3d79278a3de3c9afU, 0xbc90249f3d23c180U, 0x3db3b6953d4f57a7U, 0xbcb6bd863e01f2afU,
  0x3dde00db3dc932adU, 0xbda2b490bd87a6f0U, 0x3d7db97a3d898db6U, 0x3d7a35153d26f66eU,
  0xbd44933dbd896b56U, 0xbdb3c5683dad0c5bU, 0xbcd683603dbe7722U, 0x3d9230883d565224U,
  0x3d9c469a3d20dc2cU, 0xbcc82a7ebb7bedb8U, 0x3dc509e13c901d71U, 0xbd2f78883d0ab6eaU,
  0xbc9998cb3da44d42U, 0xbcd32b8f3d254e2dU, 0x3d36f5d6bca1378cU, 0x3c067a733d1f9781U,
  0x3dad7c10bb7ef7e4U, 0xbd9778633d64de3bU, 0xbd5a7aeb3db0d7eeU, 0xbd391aab3db33e82U,
  0xbdb442e3bd8d02c2U, 0xbbd9cb383dc7175cU, 0x3c32e1a4bda9e9c1U, 0x3d14a61b3da50a6eU,
  0xbda5a252bd057d8aU, 0xbd22330fbda4dad4U, 0x3c94854dbd8af092U, 0xbd5f66c9ba4889d2U,
  0x3da3c8053d253901U, 0xbcee8e363cf288deU, 0xbd2013583db391aeU, 0x3d82ec6a3d58751eU,
  0x3d9259c6bcef552dU, 0xbd7f8f363d7e8c05U, 0x3dc06a443dbbdfd1U, 0x3dc68b5dbd9ae60aU,
  0x3d27df4a3dc4b89bU, 0xbd0a02f23c016b3dU, 0xbdcd7ef1bce9a116U, 0xbca3dc34bd812881U,
  0x3db9017d3d7cf14eU, 0xbb8feaf03d166397U, 0x3cfb5085bd9a9c2eU, 0xbd6f1a24bdc2fb8bU,
  0x3cee255cbd93cb95U, 0x3dd5cbe8bd7a0d87U, 0xbb249435bd8a03c3U, 0x3de5b8193dbc370bU,
  0xbda8aa063cc5c812U, 0xbd823ac2bcf33107U, 0xbdc23c2dbc1a8570U, 0x3d917452baa075b5U,
  0xbba34c1b3b820ec0U, 0xbca7b6523be79991U, 0x3d7e7ec43d7d40b1U, 0xbbde31d73d4a6563U,
  0x3d5555a93bddc5aaU, 0xbcb835d53dcf6005U, 0x3db92716bd8b018aU, 0xbd5e4b05bca8f214U,
  0x3c3080d4bd82c5beU, 0x3d8c871e3cfd753bU, 0x3dbc2357bd70237eU, 0x3dbfcdc6bcfd265fU,
  0x3d6b061abd8fe277U, 0x3d8123493c9ac21cU, 0x3c7a9b143bce8e62U, 0x3d247098bcc50d4eU,
  0x3d9d6a3d3d138e42U, 0xbd24e0973d4e7708U, 0xbd84463bbdb7c927U, 0xbd47a4ac3dddfaefU,
  0x3da88e763cd63591U, 0x3d0512d43c63b106U, 0xbd91dc4dbcadcb4aU, 0xbd86b8cabd8b8636U,
  0x3d113f28bdd34e69U, 0xbd4d1158bd059bd6U, 0x3b0b4096bd8235feU, 0x3da940dc3d4c9833U,
  0xbdd9a1553deba3e5U, 0xbc3356d2bd2afc75U, 0xbd2700653cdc19f5U, 0xbcfedc5b3d0f675bU,
  0xbd18efdc3dc72553U, 0x3cb32e853d5cd855U, 0x3cc8d0233d4e53f4U, 0xbaac105abdb4f76eU,
  0x3d9ddfaa3dabce37U, 0x3cfa8314bb16a0c0U, 0x3c9ae5793d48aaf9U, 0xbdf1fbb9bd8cbcd6U,
  0x3df273223d74810dU, 0xbdbbdbb5bc127e0eU, 0xbc5b22ae3cf51803U, 0xbd969089bdb53017U,
  0xbe0a0f053c8362d5U, 0xbb2fdf1cbcfa3985U, 0x3bf25b6bbdcf1f05U, 0xbc80846e3d85f619U,
  0x3aaab6903dc44eb7U, 0xbdb604d3bcc52f9fU, 0xbcce3796bd4efbc0U, 0x3cfe62553da9171aU,
  0xbdb9949fbdb925cfU, 0xbde582e43cc57abaU, 0x3c01dd933c56ff95U, 0xbdcd043ebd2e3a3fU,
  0xbc080bf2bdb56b70U, 0x3da6c0dab967e74cU, 0xbd283f9dbdaf62a3U, 0x3dc3b967bd91adacU,
  0xbd23e8633d8e6186U, 0xbaff0f47bd48749bU, 0xbdb324a43c467026U, 0xbc25c45f3d204759U,
  0x3d49ad723d551311U, 0xbd9e41b5bd8db2abU, 0x3d146f74bd068dc0U, 0x3cd1087ebc7f43c3U,
  0xbdc3af02bc64426dU, 0xbcb64130bd269e01U, 0x3d50697b3d300e7dU, 0x3a8bdaa3bc686660U,
  0x3c09a3503ca0eb61U, 0xbd4406bfbd3c0c79U, 0xbda9cb14bd933c4aU, 0xbd685b69bbb14ddfU,
  0x3b1eaeac3d657496U, 0xbb527f6c3c70b318U, 0x3d92e3c13d9388ebU, 0x3d3c9b683bbab478U,
  0xbd95648c3d470dd9U, 0xbd9677953a1201dcU, 0xbcf59c683d83dad8U, 0x3d82619c3cabc858U,
  0x3c480183bdc8b881U, 0xbda2d8aabd1e76a1U, 0xbd951b58bd4ddf47U, 0xbd20d365bcc52a3dU,
  0x3d0b971c3c69586eU, 0xbd69cdafbdbd077fU, 0xbdb2fb8ebd781a2fU, 0xbc223906bbfab426U,
  0x3dad4fb53d564cc0U, 0x3d5757583db7c9fcU, 0x3d12452dbc9e65a1U, 0xbd39e32ebba5c0f8U,
  0x3d8db8713ddc0158U, 0xbd33e183bddb6fbdU, 0xbdd1d38bbd86e44bU, 0x3d488450bd5aeb93U,
  0xbc3a7b073d04fee7U, 0xbdec1e0bbd83d649U, 0x3d326321bda0045fU, 0xbca5e666bda83f4dU,
  0x3da1a8623d1b3066U, 0xbc6d20a3bde583b1U, 0x3cf854413cdf6317U, 0x3d533e28bdecff65U,
  0xbd9dc01d3d8cd82cU, 0xbd2be6843d2e262cU, 0xbbf6179ebda9ce55U, 0xbdce8276bde5d533U,
  0xbdf0285dbde30170U, 0x3c82370d3b6e3d86U, 0x3c9dec2c3d556235U, 0x3dff8be73d822788U,
  0xbdc542d03ce0558fU, 0x3d2f246a3d4fecdbU, 0x3ccbe0ecbdb10059U, 0xbd0390da3d7b67aeU,
  0x3ba62c2e3b936504U, 0x3d0b3986bda6a49bU, 0x3d14ee253c5ed454U, 0x3de6aaa03cad9c17U,
  0x3dec5bcf3d241776U, 0x3da57e23bd7d9b12U, 0x3d1932cf3cb3f60bU, 0x3d11a1483ca633a3U,
  0x3d99dbf7be00c879U, 0x3d38c76ebdbd392eU, 0x3d00ecf83cd8d4c5U, 0x3dfc3170bdd5d06bU,
  0x3cf56f973d10b518U, 0x3db998f53cabc180U, 0x3d8dd15c3d8497b4U, 0x3cb45f7a3e0248c2U,
  0xbd25fe05bca20620U, 0xbce9318ebbf180acU, 0x3bfc3bda3d18fcdbU, 0x3d097ca0bc71a0c5U,
  0x3d5b1588bd12aedcU, 0x3caab3d8bd9a980fU, 0x3dce2cb33d3f888aU, 0xbcf99536bd3b7883U,
  0xbdc36e3cbded836fU, 0xbd9cfef03c829b8cU, 0x3cef6b593d9c3e2bU, 0xbd880e62bcd36af7U,
  0xbd7a5d963d166568U, 0x3d84cc51bcc816f7U, 0xbb9f4c253d88130bU, 0xbd6f2b953d952f21U,
  0xbd2b32273d8ae79cU, 0x3ce0d266bbaf9563U, 0xbcdfae05bd71260aU, 0xbde086503d12f3c2U,
  0x3d17f6443ca213a7U, 0x3d709636bddfcba8U, 0x3d614eeebcf5dfd5U, 0xbd3dc9923db9208eU,
  0xbdb103a53c811679U, 0xbce844683dd8b53dU, 0xbd8bc855bd12520eU, 0x3d88dd3dbd738afeU,
  0x3be52e623d97fc5bU, 0x3dde9e8b3e0451baU, 0xbd4d65a4bd82ed89U, 0x3e02de3cbcc17b64U,
  0xbcf62fe13df16e77U, 0xbd7f68f4bafe465bU, 0x3cbfc5e0bd7dc4fcU, 0x3bc4fe8ebd8f4debU,
  0xbd53988d3d551f25U, 0x3ca732f83d5aa71bU, 0xbd8e4e6f3db4a25bU, 0x3dee3dbbbd48bda5U,
  0x3d4c4a153d9aa9b3U, 0xbdb17687bd0217b5U, 0x3c6a585d3da439afU, 0xbd0caa67bd8d6cc3U,
  0x3d70b3d93d1666c2U, 0xbd8dee333d997fe7U, 0xbdd1f9743bff9b2cU, 0x3cdd5ece3dcc1628U,
  0x3d0b57463d3885b4U, 0x3d0f3e3b3c549a56U, 0x3caa4a383d9f0456U, 0x3d96328bbd856879U,
  0xbd19c0e63dc75ebcU, 0x3da423253c61baa9U, 0x3bd971d0bd841c6eU, 0xbcbb098dbd8d5fbeU,
  0xbb1008af3dd845ccU, 0x3d2b44e33d8fa43cU, 0x3d13a7f23d5ba4d6U, 0x3dd988dabd4320a0U,
  0xbc9798ac3d25e8b5U, 0x3da4ea933dd687d5U, 0xbc872fe03dc649c6U, 0xbd128be43d91eacbU,
  0x3aabd576bae63e94U, 0x3d93cf6c3da99d18U, 0x3d63749c3ddf6248U, 0x3d5d3f3abd5a7831U,
  0x3df856babdbcfea1U, 0x3aa013efbd96e1d4U, 0x3caea744bd499729U, 0x3d8d3194bcf8a9dfU,
  0x3c2081083c179cedU, 0x3d922957bd0034f0U, 0xbdaa189f3ce976d2U, 0x3cba5ee5bc11145bU,
  0xbc6c5dfebda81989U, 0x3d6967c53db7923eU, 0x3d0e9599bd900812U, 0xbb5c8b4c3d6c7045U,
  0xbdb0411a3d723a79U, 0x3c46ca483d23c6a2U, 0xbd6b2db03d70f18aU, 0xbcfc9bc6bd2ce0dfU,
  0xbdb1604b3d991a38U, 0xbd92a4373c134b0dU, 0xbd25d2a53de37c31U, 0xbd12723a3dcfae94U,
  0x3de2e3f0bd4f9665U, 0x3d9f31e53da0abefU, 0xbdacd11b3d1c793eU, 0x3b9a787f3d7af314U,
  0x3dd21c5cbd332305U, 0x3d678009bbb9a36bU, 0x3d21df2f3d386908U, 0x3c7a31a03d7bebffU,
  0xbda7ad203de3ff96U, 0xbcb30bdebd74bff7U, 0x3d9bdd483d799b19U, 0x3dc4e3fa3d23caeeU,
  0xbd3b7b003d946850U, 0xbdfd8ae5bda1f760U, 0x3cd49e33bdac0802U, 0x3dad03cfbd9a236cU,
  0xbdc570eabccadbbfU, 0xbd1697c8bd923440U, 0x3ced266abd33406eU, 0xbdaf5fed3d9b4720U,
  0xbd4d27d9bdcd77e8U, 0xbd592891bd1e307dU, 0x3d4bcacabcc81240U, 0x3ddcf92f3de23498U,
  0x3dc9bd77bd2274daU, 0xbd885f18bd410a67U, 0x3d864e053d01bb0aU, 0xbd47deef3d60d5fcU,
  0xbc5112f7bd950337U, 0x3dddcb783d82cc97U, 0x3dbba264baa8153fU, 0xbd2e0b713c974b21U,
  0xbb8f77163d993adcU, 0x3cac0bb33ce8c509U, 0xbd2a52793db86c6fU, 0x3bb9db983d90cecaU,
  0x3d10155fba94f584U, 0xb9e6281a3d904ec5U, 0xbd8734b1bc6cf810U, 0xbd58d6e93d1c6bbfU,
  0x3c8477ff3db22788U, 0x3b6be04bbb4ef4dcU, 0x3d54fe263da84c89U, 0x3cced8103dacdc3dU,
  0x3d5e667fbd8b75f0U, 0xbd77a7b1bd48b2f1U, 0x3da7f7adbd1133a4U, 0x3d8e0c953c559907U,
  0x3d2d14e3bd8bdf76U, 0xbd29f992bda1b29dU, 0x3d65be6c3a9a1eb4U, 0xbc325c5c3d8a9506U,
  0xbc90296abd99ad4cU, 0xbd00a6a5bcae3450U, 0x3d0a6c28bda52e75U, 0x3b885afdbd210e44U,
  0xbd47335e3c2b3fbdU, 0x3d214d433d73fa8fU, 0xbda359ba3d1b1a79U, 0xbcfd0064bbfb4d72U,
  0x3c75700bbda1424dU, 0xbd5e8b39bc06cc88U, 0xbd57480dbd7841c6U, 0xbd453dea3d84d988U,
  0xbd014aabbd89d62dU, 0x3c16fa59bdb7a666U, 0x3c88d009bd0c0fa4U, 0x3c6e6af2bbac12cbU,
  0x3dbaae623ba7a3e8U, 0xbd0958463d567cc8U, 0xbdb52d55bdc31e88U, 0xbda8e7bbbda65c14U,
  0x3d6b92cebd7b16eeU, 0xbd2eb3913d97b9bfU, 0x3dc9db0b3daef84eU, 0x3c682cd63dd3846eU,
  0xbd03277d3db5a43bU, 0xbd738bbdbc08c71fU, 0x3cb028f4bd7ca77dU, 0x3cb2a77ebda12ed7U,
  0x3dbb82703d650a98U, 0x3d99fe88bda6179cU, 0x3d30d4853d6c486bU, 0x3c86edda3c8d8c69U,
  0xbda6e74d3d103c00U, 0xbdbab085bd9211e1U, 0x3c443aa73dc29313U, 0xbda5bd65bd9a12f3U,
  0xbdba03c33d0ad4ffU, 0x3cc455223c594b61U, 0xbc362251bdaf06c2U, 0x3d5c85d83d077b4bU,
  0xbdbbee1dbd01bb1eU, 0x3bf929aa3c8b9148U, 0xbd0e50e0bcc275d4U, 0xbd8499b73d9df650U,
  0x3db884d2bda5b71eU, 0x3cf68708bc01b6bdU, 0xbdba597ebda9371fU, 0x3c15e3803d969821U,
  0x3dbfc5e3bc9fb3b9U, 0xbdaa6da93d8a18ccU, 0xbc012bbfbd4c0fd8U, 0x3d7a4a1fbc16273bU,
  0x3d6e0f6e3aab9847U, 0x3bd673ffbd99a5fdU, 0xbd9bf4763cd9d62cU, 0xbd110a53bda76734U,
